/**
  ******************************************************************************
  * @file    network_data_params.c
  * @author  AST Embedded Analytics Research Platform
  * @date    Wed Jul 19 09:39:25 2023
  * @brief   AI Tool Automatic Code Generator for Embedded NN computing
  ******************************************************************************
  * Copyright (c) 2023 STMicroelectronics.
  * All rights reserved.
  *
  * This software is licensed under terms that can be found in the LICENSE file
  * in the root directory of this software component.
  * If no LICENSE file comes with this software, it is provided AS-IS.
  ******************************************************************************
  */

#include "network_data_params.h"


/**  Activations Section  ****************************************************/
ai_handle g_network_activations_table[1 + 2] = {
  AI_HANDLE_PTR(AI_MAGIC_MARKER),
  AI_HANDLE_PTR(NULL),
  AI_HANDLE_PTR(AI_MAGIC_MARKER),
};




/**  Weights Section  ********************************************************/
AI_ALIGNED(32)
const ai_u64 s_network_weights_array_u64[17267] = {
  0xd902e700cadd1dc6U, 0xf617fd322619f0d8U, 0xe6f5f01e44caf807U, 0x152a7f0fe2ef00f9U,
  0xfcd7f1c706fc0f1aU, 0xdcdee9b9f70e1605U, 0x18101fb07f904faU, 0x1ff8f5fc051f391bU,
  0xbcd42007591d1f44U, 0x8bbe8072be60edcU, 0x4310420ef1303f1dU, 0xdc8182f6edfbd9feU,
  0xbf6cde9eff807ebU, 0x1a160f1530aeeee0U, 0x1bf4e7ff1c00f281U, 0xe606012a0618d51aU,
  0x4b68f0efc0089ec0U, 0xe2001325daf52f26U, 0xfcf01337dd0b19d9U, 0xd59ca267ffa4402U,
  0x190b0ebe020d3ce3U, 0x81f77808e8202816U, 0x34ff08e9d70732U, 0x1907f40b062537f7U,
  0xebcfe807dcc07504U, 0x1ff507447f02d69eU, 0xea02febd06f5f810U, 0xdaeefc2c9ff1eb06U,
  0x734cffccce8ee09U, 0xeafb8101e5f3dc21U, 0x4e9e1080217159aU, 0xed14e724798356bfU,
  0x514f3ce0e1343e6U, 0x810efc1c05112304U, 0xde57052215e5f20fU, 0x1f2603f22c121603U,
  0xf90a1c1cf81b15d5U, 0x41c9203f1521c1ffU, 0x7ff6100f2e37e41cU, 0xbe08fa333ef4082aU,
  0xadd18246d09e81fU, 0x1f81c3e2c809f327U, 0x1d1e1a08d525fb26U, 0xc7cfbc0911d8b9d2U,
  0x9cdf7f2fd08eb3cU, 0xf614069f811112f9U, 0xab04ff28ebd42bf2U, 0xfaa91010c41219faU,
  0xde11a7eb2e06e31fU, 0x1d04fd121592ee16U, 0xf30b09ff03120e81U, 0xdef51e0bf52ad416U,
  0x1be54abdf5f500dfU, 0x373c7ffc0d3cfd07U, 0xe14702d6dedffb40U, 0x1af7025fe270e448U,
  0x201f1dc812cf404U, 0x22f0fcf0effb0718U, 0x41ee276a1f351101U, 0xfc59f9ef0600f3e8U,
  0x2efdefbb1e31cbe7U, 0x36d71cc0d13d930eU, 0x141a18fad5ccdde3U, 0x8100e14ac63985dbU,
  0x1db01ca03fb0713U, 0xc3f7dcc602fa0ffbU, 0xf9810109020bf9faU, 0x13f8f8ebf4243431U,
  0xc0c306e97e4bd524U, 0x248ccaebfed40217U, 0x5c077fea241b252cU, 0xdfbf2105f2dfaafbU,
  0xcfef209f7fef3e0U, 0xe50270f9b0f70309U, 0xfd7ffe12090602f1U, 0xfb0001efd4ebec06U,
  0x30c4e1de8f2d330U, 0x203652e30623f85cU, 0xf6ddeacb810e7457U, 0x5a5e50526142c22U,
  0xfd0815f1f6fb090aU, 0xbfd6810e01f80b05U, 0x9ce00180903041dU, 0xf04fce9121b27bfU,
  0x3853280381a0f3c3U, 0xdce60b3d0b2e72ebU, 0x19fac5d927bd0131U, 0x28ec1ae750d20af0U,
  0xd0c90e1032bdd770U, 0x1508d8c8d7cbf840U, 0x2602df8e81014301U, 0xfea08ee0e407ea05U,
  0x6f0921fe7f6c1323U, 0x120cec08ff00ebe0U, 0xdf524499404d2ebU, 0xe9e1f34f15d105U,
  0xf71afdc4ef07330cU, 0x81f1a90d04170affU, 0x81b133b0f0bec14U, 0x72af9062f1b30d3U,
  0xe5030c00fc6ed932U, 0x7ed05b79b020025U, 0xcff8d958880d3202U, 0xfc7f9ef490131bfeU,
  0x9003e330b02e905U, 0xc0edfdebd91a1d27U, 0xecef07fca3db077fU, 0x28e7dcdbe4c91f0aU,
  0xe80d1a2a160d010bU, 0xbce6f0f5dd19df05U, 0xfc220a06121b0115U, 0xddfa0d0f49d37fd9U,
  0x13f6097f3b154bU, 0xf4de9c35f2f938b3U, 0x2754c92034c3eeU, 0xf5f7ff9fe3ebc9aeU,
  0xe8e10bf9fcdef222U, 0xdf2fbdacf0dfb41U, 0x1703fad7ad0d380bU, 0x2d28102de08fefdU,
  0x20be9bd08f7281cU, 0xdafac1e304fa1d23U, 0xcc7fafb00151503U, 0x28eff3102b7f3eeaU,
  0xfff1b48ee9011609U, 0x1441b0b2d0b0b0cU, 0xf32b1007e10e1281U, 0x1514d835102eb90aU,
  0x7150602230905f5U, 0x5fd0c161af4fc14U, 0xafe00d481fef7fcU, 0xfcf6befe0f000afaU,
  0x7f5ee60011070799U, 0xdcf333fb082201b6U, 0x21201222efed91dU, 0xd108150f361f4408U,
  0xae3ddc8dae52ef4U, 0x480dffe924c9f5c8U, 0xefe8dfe11305e89dU, 0xc9fc1b17f70781e9U,
  0x3532ede8c7fc0681U, 0xeafb0a261212f7ceU, 0xf208f73718f2e5f9U, 0x85128fc140440ecU,
  0x60b309fdddf21428U, 0xbfe8ceeee5dae14eU, 0xe82dc8f9270bf0abU, 0x21d601f41e812bc8U,
  0xbde4b90d1d0eca22U, 0x9b173628570ee70eU, 0xad2b1111e5a00d03U, 0xca0b48c7caee7fffU,
  0xf32d3c471305f413U, 0x92a5d107bb0bebf1U, 0xeb14130bf3e1173cU, 0x33fdfac424d77fd2U,
  0x1804fdf8f8fa0ef6U, 0xfd1e7f1dfa01cd07U, 0xfe1600fe02fc0901U, 0xd1fe0af3fb1f9e10U,
  0x108fde20afd1a07U, 0xb0ea870b13080e08U, 0xf5b4f3fb0cfd0408U, 0x2300ec0d25294281U,
  0x90f17f0121307fdU, 0x81d5cb0c0f26df0aU, 0xd7dc0b0d06d30e07U, 0xd00fcf62dbc6aaaU,
  0x707fcebf80603f7U, 0x81c100fafb0e25f3U, 0xf2cefee432f31820U, 0x1af915f20506383cU,
  0xf1b9f0e3bb130f81U, 0xebfafae4c115e3d2U, 0xdff31a0c0eee3106U, 0x170f0d0defeb1600U,
  0xe30df1dde2fde5deU, 0x11f1e77f66047133U, 0xefb9f81109f136e2U, 0xf4d1ed02501e4a1aU,
  0xfcbded0081a913f8U, 0x40a18bcfc1bf1fdU, 0xea0ab9bb1be93b0cU, 0x1eb72a1e9e1131ffU,
  0x7f9030bfcfaecebU, 0xf30d521bb7f6e508U, 0xf77f07110b051106U, 0xdefa0600dbfbde09U,
  0x1a0e0e064e18041eU, 0xd0908110a0dff29U, 0xe1f503f494f8fd08U, 0xbe68100270cf000U,
  0x4e3234102fe0ff9U, 0x1be53ff71ff73811U, 0xf7ddf20209fc1dcbU, 0x50f5deef1430407fU,
  0x19fd63e3f9fd0beeU, 0xc8fb03f8ce4c2be5U, 0x2fdfce1fededa7fU, 0xf9fef71d05fb070eU,
  0x1a72d0ef81b5a9c0U, 0x13fa057032183832U, 0xe9ebcc3163dc0fe3U, 0x3a58520e6df13507U,
  0x18deb471f1faeefbU, 0x311e01d6fcc3d6feU, 0x4e2dbfaf41231dcU, 0xa80803ecdef79a7fU,
  0x10f307d62c1534e5U, 0x81ee60f004133d18U, 0xfa2f04fb16d1fb0bU, 0x9080a0333343419U,
  0x15cff7052e81f8e5U, 0xfefffdf4d3080427U, 0xeffe244104f49107U, 0xca8040201fb05ffU,
  0x7d1d69d0a5329e4U, 0xb2faac5c60f102dU, 0xf939375e40cef016U, 0xdb35362bf77f8730U,
  0xf4f9f81bfefeedf0U, 0x2afd0a05fefed7feU, 0xdfafd0ff3f7f406U, 0xe50b05f3fd81d0efU,
  0xdaf1f4f7c2812eaeU, 0x24d3061e14e401cdU, 0xa3eed54be83efdfaU, 0xce42f0e9e909ef37U,
  0x13f32abaf7fb1b0cU, 0xd84656dfea094b05U, 0xf4f7f4edf7ecf51dU, 0x3b01e612ff7f283aU,
  0x1cf681f4fee5ae13U, 0x1d0891f2f2c8ec23U, 0xeae9e710d33b0f96U, 0xfc10ecedeca8d1f1U,
  0x4e0aea0881e547fcU, 0x251ce5f303160811U, 0xed0af59c3bcafcf3U, 0x34c647f9041c0df5U,
  0xdedb22e6bbf8e7e9U, 0xb44112e9ee210e0aU, 0xd90126711d951602U, 0x17397fc9dcbb1ff1U,
  0xd05ddddf9020802U, 0xdf017ffb17f92210U, 0x19ea07000df208e5U, 0xdcfa050dda06c001U,
  0x4e42dffcb6170ac4U, 0xe012337290c5f14U, 0xfe211d47f608d7f8U, 0xea7f29195c102212U,
  0x7dad13ddfd5e4c2U, 0x46cfe500ef15f4d6U, 0x2dcfded5e318e8dcU, 0xc7e9d61109ef813aU,
  0x24a000000c7U, 0x26900000024U, 0xfffffdd3fffffc1bU, 0x450000001fcU,
  0xfffffb6efffffed6U, 0x2a500000236U, 0xfffffae200000114U, 0x4c1fffffec6U,
  0xfffffebd000002c3U, 0xfffffcc9ffffff62U, 0x134000002c0U, 0xfffffe130000041cU,
  0x9f00000092U, 0xfffffe5d000000a0U, 0x1db0000014cU, 0x132fffffed7U,
  0xfffffd970000010aU, 0x7e000005baU, 0x2100000314U, 0xffffffb10000007aU,
  0x2da00000356U, 0x3fd00000091U, 0x2f3fffffd97U, 0xffffff52fffffeb4U,
  0xffffffcdfffffb2fU, 0x2cafffffe7cU, 0x259fffffd8bU, 0x336fffffdfbU,
  0xfffffc4c000004dfU, 0x56000007baU, 0xffffff1a0000017aU, 0x680fffffa22U,
  0x6d7f7ff9bcb27f13U, 0x4d87d15b2dd92b23U, 0xdfb952fa6250550dU, 0x53e52f657fea3ebbU,
  0x94963cc27f28f7baU, 0x4c2725444ff98175U, 0xc3b64fecb28b03adU, 0xacb760af9a639a28U,
  0xe17fd8210facf7ecU, 0x1790926549816181U, 0xa1f460ae40195367U, 0xc81176f680b1e63U,
  0x979a71bd6b38e6a8U, 0x47650d7d7f4de481U, 0x8924527fdda29498U, 0x8138638181e8a67fU,
  0xc2dcf1e08de06e2U, 0xe2e49d342bd23e50U, 0xcffc2c7f21f2111aU, 0x979be638020af3d7U,
  0xf30b40d5d33af3e0U, 0xf934d83f457cfee7U, 0xd81510c67ff3a6abU, 0x914508cbc3a15c69U,
  0x7f51647ad281767fU, 0x7f9687595fd1653fU, 0xcf895aed037f6d23U, 0x5ae56aa87a157fa6U,
  0x828d53af7c7f4694U, 0x7f097f635efa22f8U, 0xa3e27feeae87b0aeU, 0xb816cbeb17d81caU,
  0xcd38cc667f87e668U, 0x2f81817f7f037f89U, 0x81817fbdfc177f7fU, 0xf1a07f815c7f787fU,
  0x81817f816e6e5481U, 0x7f7f5d7f5c360a11U, 0x8174716ba1818181U, 0x9577f899600a1fdU,
  0x8eccbf13ae7ecfbU, 0xeeda9b634311423bU, 0xc9d8496eeeec2821U, 0x818617dcff5d0dd1U,
  0xe8f63fbd151f29b9U, 0x54de653397d0811U, 0xad763ab542c7a4b8U, 0xd9482296d6812624U,
  0x34ce257fdc9b3565U, 0x43c4e30e49202e2fU, 0xf7c81000b84f2104U, 0x220e4097050738b7U,
  0xb1d508f594466de1U, 0x3d027b2d08c66294U, 0xd41546c1e0d5cfd6U, 0x2fbe3120d9478aedU,
  0xd0bacf5168cad871U, 0x14db9a2553506896U, 0xc9aa32d4810a223aU, 0xf9b15d830839515eU,
  0x85b437e8a32e7fd1U, 0x3331562727810f6eU, 0xab7f4513dbd3a9ddU, 0x56213cedbe1494e6U,
  0xf0e8eaec3e0aeffaU, 0xe704d01e12273e1bU, 0xe7d13a42a2ecf50dU, 0xa195fe04012c1cdfU,
  0xf7e72ff10de51ee1U, 0x91c1424ffc5fa01U, 0xdc5725d615f3d6f2U, 0x1c0404d7e3b612fcU,
  0xfffffd86fffffe51U, 0xfffffdd100000810U, 0x55fffffdedU, 0xfffffe44fffffdf1U,
  0xfffff931000000b8U, 0xfffff8f10000019bU, 0x8e6fffffa44U, 0xfffffce00000078cU,
  0xfffffb16fffffbb0U, 0x1cafffffc52U, 0xfffff97dffffff20U, 0x6b300000705U,
  0xfffffa95000000f1U, 0xfffffbbffffffcbeU, 0xfffffbbd000002d0U, 0x22800000876U,
  0xfffffcd80000080cU, 0xfffffdf8fffffaf5U, 0xfffff96900000587U, 0x80e000007b5U,
  0xffffffd8ffffff76U, 0xfffffa53fffffeeeU, 0xfffffc12fffffa7aU, 0xfffffb4cfffffa51U,
  0x83700000800U, 0x26a00000826U, 0xfffff9220000005fU, 0x860fffffc54U,
  0x60dfffffdf9U, 0x7cd0000002eU, 0xfffffcb600000731U, 0x233ffffffddU,
  0x11dd22d6dc110113U, 0xef250915f232b612U, 0x237f5d1fe7ff2618U, 0xf702902d33edfa1dU,
  0xe3e940f918dd3352U, 0xe8f523051d2ceadaU, 0xde1f728f1e0fbdbU, 0x3aff0aadf725aff6U,
  0xf4f5d8f921141a35U, 0x2381d3f127c2fb02U, 0xce809f51300c5faU, 0xffaeef5e3e6e809U,
  0x9e9e90a021f314fU, 0xeef919e2040a2403U, 0xe630fcf0fff3c7d5U, 0xd0f40f12faf0e5ffU,
  0x521c0e16eaef0703U, 0xb8c305e9f0e5bcdbU, 0xdab7ed040ed00408U, 0xfae9190c7ffefaeeU,
  0x1fffdb062302f5f6U, 0x29fc00df150655f7U, 0x5e208f2ebca07e9U, 0xfdf20c07fa0b09f7U,
  0xe3f6d605f2dd8107U, 0xe9f47ffd24fafabcU, 0xf6f9ac3bd7209dU, 0xda4327f2e9281d99U,
  0x1818ef0610fb0f07U, 0x15d8e8d617030bf4U, 0x1c0a15aae714297eU, 0x71795fc2faf3f16U,
  0xe5fb02d928c6e50fU, 0x4912e1a38b8e2fcU, 0x81f1cc0600fd110bU, 0x702134711f715fcU,
  0xf8080622e800ded3U, 0x340b5b1e24f0e406U, 0xdfc916fad636eee1U, 0x5d0a0afd2905f429U,
  0xd908f6fcf0eef181U, 0x28fe07f00713e705U, 0xddaf0210cffeb20bU, 0xeaf13baff308ed01U,
  0x162004e710fadfa5U, 0x291e26f7d7261302U, 0xf1e79e1cf0fdcb01U, 0xf341031e1194307U,
  0x19e3fa1524df0af3U, 0x3ddf44ae6da050fU, 0xcae2d40108f81012U, 0xfffc3df5bef0e2f0U,
  0x214b30c2409c7c7U, 0x1af504e4f4e901ebU, 0xfa0cee020e2ccaebU, 0x7fa077f51072008U,
  0xf4ef0e03e60b3dd8U, 0xee73d9ec09e9a820U, 0x204e20131b822U, 0x1b10c80c7f511727U,
  0x27b93213c5ed0504U, 0xd9021ce4ee1deefbU, 0x2b2506092121e803U, 0xecf8f4e5f1b9d703U,
  0x242ce6fe01f2d424U, 0xe109cf25eb04beefU, 0xd9041e03f5eb0cdfU, 0xead7811724f5eaf7U,
  0xcfefea133a0318faU, 0x5203fc0f04161c29U, 0xe206f2f9feca08ccU, 0xe4fb2a0a180d0108U,
  0x23c70ace1a7f04cdU, 0x4dbc3e2f3f86127U, 0x957121d42083b0fU, 0xf605ff251f0c6324U,
  0x1af3fdfdc5dc0e37U, 0xfcffb9ff60f5d5ddU, 0x22276a110c4b19e4U, 0x1b2603aaf8fbe3feU,
  0x4b0101092810dcddU, 0xd30fd7f5fa07ec6aU, 0x17eed5fffde71c13U, 0xa603f8021ef00a81U,
  0x13d006cc0dd9f01bU, 0xf4dbe8f709ed11faU, 0xbf0bfeb713ebf609U, 0xe117f9f9ed0a17U,
  0xe8f42109d4f1f51cU, 0x1e03efd50c01e08dU, 0x1b210cfd2a30180aU, 0x5cc0f511e13cfb74U,
  0xe2e5251e1e07060bU, 0x1cd9f80b0c02d801U, 0x2ef40a7f2a0ab711U, 0x6f91efd09f78909U,
  0xdd10d91bf2febfd6U, 0x3edad029ef191d06U, 0xe74c76f1d6ba1198U, 0xde914dd05e9c0d8U,
  0xd416c3ae530a2c1dU, 0x3bddd1e1de139d54U, 0x5e00e3fe0681c761U, 0xe9e9b203db44ebdaU,
  0xf8e422f412f3eaf8U, 0xf20cd8080209ec33U, 0xf209fb10f924f781U, 0xf04240afffcf7d0U,
  0xdaed05f103f204fcU, 0xf725f6d00b01feedU, 0xf71dfcf5e9e2fb29U, 0xf7dc34f925040915U,
  0xdfdf9f6e925c0fcU, 0x100109020581fdU, 0xfb0719e7e0b2d6b5U, 0xbf5fcffee090cd2U,
  0xf0120dcf0f0af6dfU, 0x7e3d7dbfb180a2aU, 0x29ea080d3206082dU, 0x19f9ebfbf503ec01U,
  0xf32cd930241d0349U, 0xebb0f90ae4fcb9dfU, 0xe1e910d3f2fbd7d1U, 0x318810ee922f7dbU,
  0xd0c72904d27b696dU, 0xdcd8f0f2f2d82a1bU, 0x14f2f9cdfa92e363U, 0xdd34e621e41183e9U,
  0xeb1b1f06e601fff6U, 0x36f908ed07f6ee3aU, 0xffeffb01f8a0fe30U, 0x1db71306f8e80642U,
  0x42ff081a0d25f207U, 0xfab80333f71a161fU, 0x13000720fbfeff88U, 0xf0e811b081ced0aU,
  0x1b0176e413322103U, 0xf7bf83ef3bf3d902U, 0xd21db150350ff5bU, 0x36c6401fca38ea27U,
  0xd5ed00f41615e620U, 0x811a2e30e41ebf90U, 0xd2d3e93e3ff19decU, 0xb3d53deac269dbc4U,
  0xe11f4f1f9f40a0fU, 0xf88115fcf8f907f9U, 0xd6f7f0f5ef0812f7U, 0x7270af5000819fdU,
  0x20b131615ed0420U, 0x4f3f10c13f00509U, 0xf4fb23f8f4da04f6U, 0x70dfba920090d05U,
  0xeaf71e0f122ee40eU, 0xec3be8fc8f08dcd4U, 0x370a2cdee3dbfcf4U, 0xfe9e04fee6f3b1e5U,
  0x85163b400a19e3b4U, 0xae50678ee08347fU, 0xe0dcede5d712008fU, 0x9032e040affa90bU,
  0x10ffe60e092b0ce8U, 0x5f8e6f405fee8deU, 0x1d0ddb0c10fdc1ecU, 0xf7dbc8f3e881f118U,
  0xef1403e8ef2df2f4U, 0x9ff9dae6f701e6eaU, 0x90801f8e2d71517U, 0xc80d0c25d4f6f306U,
  0x6147ffedff92032U, 0xddecd1d6e4f7c93eU, 0x14f7fadafbea04eaU, 0xd03b0304373507e2U,
  0x41a9fd01fdad1514U, 0x3000b0309081e25U, 0xdfcc00ad051cd8cfU, 0xdfedbc14f796d805U,
  0xb22572004e537deU, 0x14eab9f70317e70fU, 0xfbf50817162ae445U, 0x44002ef2565e0909U,
  0x42f5124af8f42106U, 0x1726f31df81eeee3U, 0x7eff97ffaf40ac6U, 0x22648c4171d1a0fU,
  0xc0ccff8defe05e8U, 0xe80f13fc2130f9cfU, 0xf7eff8dee70af81dU, 0x82b10e6d610db81U,
  0x121c1beb05dbdbf6U, 0x1c37fc370ef82155U, 0x19e3cb0234e3f408U, 0xfff1ccef0616fd0aU,
  0x13f781fbfe2b0e02U, 0x1911f420cf09e800U, 0xeefef00406150508U, 0x21e1e6ffc7fef2e8U,
  0xe5211816021ffef2U, 0x71408060100edecU, 0x331f0dff82f2ea46U, 0x2c15dfe7f9590eeaU,
  0xe190303e9f7f91aU, 0xed0708e9ff1f8113U, 0x1dcdf00f0cf54b14U, 0xc2f3080b21190324U,
  0xf98ffef727bef7e9U, 0x49f4ed0700f6f00cU, 0xd6f9fbfde70ee7dfU, 0xc0314f00dd2fe15U,
  0x12da0ca5087f08ccU, 0xfdf8ec0436d5020dU, 0x18e2effbf013c409U, 0x90ddeeffc05290cU,
  0x1dff0f02e9030639U, 0xbaec200616f0f6e1U, 0xe8e91a10f2650916U, 0xfe0709f6f2140d03U,
  0xf8240c13ecf3027fU, 0xf3dadb0d37fabd14U, 0xc1f0de16f1180a05U, 0x820fb0de402f10eU,
  0x3f20f90873ce2345U, 0xdf2b0cf6f901faf8U, 0xfa03101df5ca0401U, 0x1d22f2e3fffde81eU,
  0xf000321b1d0404cdU, 0xd4498fcf0f521cdU, 0x1b4c771107ec25f5U, 0xf9f8defd387f0228U,
  0xd0ddf1352add48cbU, 0x317df02e6202b07U, 0xbf3f80cf2ca86f1U, 0xf83809a2dae810d3U,
  0x35103b34fccabe07U, 0xf9f0ede7c8f28109U, 0xecf2ffe5d3cbf3d2U, 0x5007d3f07a1c1bf5U,
  0xd49928fd12da2604U, 0x5fd7c6f016061011U, 0x31ee2a0d149babd6U, 0x46eb0109b8ff22f4U,
  0xc0fbe20b9f12b7e9U, 0xdb252ba80f11fdecU, 0x3504440ff8fbf3bdU, 0x485eb016173722c7U,
  0x4b043bb500a3ea0bU, 0xd907febf30300137U, 0x16b9fb2a58e91063U, 0xb5f681c9221e4ef9U,
  0xec0c201012aaf8deU, 0xfab4eaf2d3e623f5U, 0x5fecee0b380811f3U, 0xc5fefa08e998f6d7U,
  0x4c3b81e4f143fd1eU, 0xbbeee1fdface28fdU, 0xaf906f4d7f9dd03U, 0xbb02f46f1fd32a3cU,
  0xf2797fc22e3f831U, 0xf20911fef9a9ef05U, 0xc1a07d628fd1aefU, 0xf6088132c4d906fcU,
  0x122c172845015630U, 0xf4d8f1de0cfc0c0bU, 0xebe31bdff820f347U, 0xbf3db133ffeddf8U,
  0x21144002fbfe29fcU, 0xf1fcfffceffffc62U, 0xe9fbff6113f409beU, 0xfcc8fd07e7fdfc81U,
  0xf00e110a0afc030bU, 0xfffe0ef0fcfef307U, 0xedfd049ed5faf4d9U, 0xf902ea03f805f2f6U,
  0x13e40106ce53fe98U, 0xe02b31dfe0ebcae1U, 0xfb040ef7fb0890dbU, 0x360021ea06280be7U,
  0xfff00ff0bc1ff4b5U, 0xf70ad3f11deeefeeU, 0x4a81fdf5d7f3662cU, 0x19edbcfaeb120fecU,
  0xf721dde214a20e70U, 0xfe04fd0c22f3dbe4U, 0xf30b15ed230decf4U, 0xfded8106e9fad6e0U,
  0x241a15ec08f1f319U, 0xec0c23f502f72c1aU, 0xf40ef4f2fda50cf6U, 0xe3eae0e909100f0dU,
  0xf61be905cc034514U, 0x1060fed12f8b43fU, 0xfffcedf6217f0349U, 0xf7c51afdd31ffb36U,
  0x3a1ceefa01f6e0f8U, 0x714e2071300edfbU, 0xe6e4fb06f0fcffb4U, 0x1f0c0b00f7e5cf01U,
  0x103fb1b1813331eU, 0xc15fefcf60a10d1U, 0x10faf130fc430d5bU, 0xf2eaf3f4d601efedU,
  0xa11f9260202ed14U, 0x7fde35e049f5c6U, 0xd3f5fefdfef6e1f1U, 0xdb229fefef60efbU,
  0xf9270133d5fb1d16U, 0xfaeeeb13e9d5ce0cU, 0x4004f7fd04f58104U, 0x3309bc06ece8150eU,
  0xf7e51605fff5263dU, 0xc6f8d0f3e4062f26U, 0x3e6e9ec0ec1f3fdU, 0xdc090f03192bee82U,
  0x25111528173c037fU, 0xf6d4f9f510e383ecU, 0x30230402090ef619U, 0x1efde7ff2a13faebU,
  0xe8edf9f51511164bU, 0xf9eff90910fd4235U, 0xf20202ebf9d806edU, 0xfdee03ded4060801U,
  0xe3e6060632001409U, 0x1e0281a03031e12U, 0xf10bc5f423e832d1U, 0x992806f4ffa21ce7U,
  0x460a271bee09ed1aU, 0xe8f1d00e1807f019U, 0xe30c32cdfd137f12U, 0xefdbade81ffe3916U,
  0xf91bf00424161e49U, 0xe3fa102e01d303e8U, 0xe0f305dd38e240daU, 0x81dceafde1c2f81eU,
  0xf0c23217e40c0e2bU, 0xe8020f00f0de090cU, 0xeb36fcc4f1112ddeU, 0xfc2df4e20d1109daU,
  0xaebf7c7ea074be7U, 0x270829fcfd2af8d5U, 0xd24429b201f005a5U, 0xc158c7450aee48c3U,
  0xf30301eccf0de8f4U, 0xeab0830fbb71216U, 0xf8fe43ccdc281cf9U, 0xd42e81e9fbd60adfU,
  0x912f3fe06e218efU, 0xcecf11c0a08d305U, 0x29c1e4f13006dd04U, 0x1e608f79bdeeff9U,
  0xd62fc2f281dfa021U, 0xf3d502fbe9f1d7faU, 0x4affd9ebae1334e7U, 0xd6f8ee3e18f8aff2U,
  0xf5fa22f0ec0c017fU, 0xf4eaea240622b5f1U, 0xfc05eb00f6db0a03U, 0xccaaae80cf8f712U,
  0xc90afcf2e7460ffeU, 0x1af7dd16fcec2e13U, 0x2c0704171ecd3721U, 0xc4051316070dc701U,
  0xdf051304fa1114U, 0xfd15fe031db808feU, 0x19fe02f71d0f0705U, 0x1bfe16e30914eef8U,
  0xffd07f78100ec03U, 0xde10f713f616e1f3U, 0x16e2fe0d0037050fU, 0x5ed1320021215caU,
  0xef826f5b9f5feU, 0x78100fdf10ff30dU, 0xd7fafd0edf031afbU, 0x151ff2ee010039f2U,
  0xaf4000b21fcf114U, 0x2efff0ee0a05faecU, 0x20f0430aeedbf820U, 0xc12efe00b0a09fbU,
  0x1cffa2fceff6db10U, 0xfc08e5ea1e06ff63U, 0xfbe4eb64fdc501f6U, 0x7e00e10e6c6105dU,
  0x2000070aec1af819U, 0x609edf9f81306f7U, 0xcad6067f040de204U, 0xf12617f8eb1746faU,
  0xffcb371e0a1631f0U, 0xbdc8cf92ec3f01fU, 0x3c2df70c101ad83bU, 0x2bba2afb2f2f0e03U,
  0x381bee13d003d922U, 0xca3b14ff2636e6e7U, 0xd20bfe7ff546aba5U, 0xf7e82df6f500300bU,
  0xe2ff26f717fec3faU, 0xe6070112f603c3c9U, 0x1005065e0541f2b3U, 0x19e8f30425100107U,
  0x83e809f5fbfdfdfdU, 0xf90f03e10003fe09U, 0xdcea06811efbe83bU, 0x7fb54020dfae701U,
  0xe534f705691bfec5U, 0x7fa8ae592e8d4725U, 0xb70f0905f2222400U, 0xe4c405f9fdded43eU,
  0xa153f674dc40d709U, 0xbc2b0ce8d5facca6U, 0xe2181023c7fa27a6U, 0xf7214a29baa80607U,
  0xb380af23b81e8c0U, 0xe96fd5eab3f852b1U, 0xe092ed7371356f0U, 0xabaf22d26f1f7c7U,
  0xecaffa06f815fecaU, 0x4532ef3c011b1325U, 0x1a171000281612d7U, 0x4306f624fff201deU,
  0xf70f0e0aff2ff70bU, 0xa5dcff20bef8aecU, 0x130c0c01080c8104U, 0xd6cbd90a1ddbf616U,
  0xf8e849f217e40e17U, 0xcc050a0f0f01151bU, 0x221ef0f6f2f8f325U, 0x1101e0c5c704c51fU,
  0xe0116edf409fadeU, 0xe2d81be11b25f01cU, 0x2bc60dfec71d8ffaU, 0x2c287ff920d30dU,
  0xff08e40e5b00e941U, 0xdf29ef18150ed405U, 0xfdefde0cf88df518U, 0xfc14fd954619c82bU,
  0xd8fdff051e7f0bc8U, 0x2bdbf6400e39402fU, 0xf045c2e8dfed0e04U, 0x5bfbafffc6aad407U,
  0xf74e01080c51f3eeU, 0xee5f507e0e7da1bU, 0x5e69c70ef1a17d5fU, 0xe8f143e4cdf416e4U,
  0xa60b3c18951e1fd4U, 0x11d0d5ea14ffe2d4U, 0x1520e08a09f52bacU, 0x5212f303e112067fU,
  0x3082af401effb08U, 0x13d8def21809bfffU, 0x23fe17e7371e42dcU, 0xd8f3132b16a5880cU,
  0x7d8f1e5d348f547U, 0xdb197fdefc13e8f1U, 0x1c6614f1e809f7e9U, 0xfc1ac5f7f20505dfU,
  0x13fa390a2fd51d3aU, 0xef0713f72d25efe3U, 0xfdf150a16cdcb19U, 0x511f2eb020a0803U,
  0x2fcfbfefafa0534U, 0xfaf1044deefe0500U, 0xfd00f3ee08f31604U, 0xfded0bfffc81ff09U,
  0xd936050b0b170efeU, 0x1204ed1cfffa0a07U, 0xa0ff8fae10e6012U, 0x1ce80b24fcf4dc10U,
  0xeafee6ce180c0b0bU, 0x4f9e52600ededf2U, 0x7fee1f051910d317U, 0xe80c0d2505caa7daU,
  0xf934d607f12dfb30U, 0xb71c7702fbe3f606U, 0x16fad406e619232cU, 0xd9f20908d2001722U,
  0xd180f4b14dee57eU, 0x109d27d71af3110aU, 0x48cfeaf8131cfd1bU, 0xff2d34ae210d0903U,
  0x22b00ff359af232aU, 0xef10bb062c915328U, 0xb98a23ae11a688f6U, 0xd581c1dd098ec9e3U,
  0x160cf13bfff9002cU, 0xdaa40305031be10cU, 0xd110c0ee028e506U, 0xff1681f0ebeff4e9U,
  0xebeef41b210e2433U, 0xf00dbaf802060d03U, 0x191422f821af2ed1U, 0xe229fbd42f032410U,
  0x1536f50b3401fe7fU, 0xcefaf2d7d235120fU, 0x7d0228dd1509db34U, 0xa1c96dfee021002U,
  0x1df054ec373b703aU, 0xcc06f60f03092a3dU, 0xef86fdd10104cbf1U, 0xd20912e4b40e0207U,
  0xe5ffe705f6f517e7U, 0x7fdf0b5f5d7b0e3U, 0xe927040d2419f70eU, 0xe429eaf50a34f7feU,
  0xcd51706fc88eceeU, 0xfb03c312fa1cedf7U, 0x29d812fbeae281ecU, 0x10fef0cc1c2400eeU,
  0xad60e09fb160b81U, 0x11300a05e504e30dU, 0xe7ee0703ec0ec20dU, 0xf092ddb12f32b13U,
  0x10f404feceff09bfU, 0x4909dcf0f204f1e6U, 0x101050204390a15U, 0xd04f60e000707f0U,
  0x14ddf60b362a11f5U, 0xeb21395725e6df1eU, 0x39ef9ee61c13fb06U, 0xaf470618c38bfcdfU,
  0x1748e4eea27fc905U, 0x4eb32eef9eafceeU, 0xe0f0e40d1a676d15U, 0xc80dfd3ed3f91714U,
  0xebfa0812f1bbe5faU, 0xf4eddee4ec00d02aU, 0xe5fdfd0ff8d6fee9U, 0x82efbfc243c101bU,
  0xffc5d922e881e1f2U, 0x2c01afeef6fde7e3U, 0x6fa120a31fbb9f2U, 0xecf3e8cb3e07e60aU,
  0xecf5f60d16b1210fU, 0xfcbdc92ad6d2faffU, 0xf02f2c759e9e133U, 0xe5b0110ec181d7f8U,
  0x294ad838b036f819U, 0xbc22f328f746d906U, 0x1caf80908f2e5b2U, 0x8f60c36e70c0b12U,
  0xf10db917cf1dcf11U, 0xf8163020fb32ffb1U, 0xb217bdd8e6d53cbbU, 0xdb69e4eae8c306e1U,
  0xf3a0eb9f825eef1U, 0xe5e9efcf1fe40efbU, 0xe4f501b6cadc336eU, 0x19f381f6f502510fU,
  0x180e141e34c7dee3U, 0xe80bab04fa312f1eU, 0xe581f2f4fff904f4U, 0xe2ce1bf228edee05U,
  0xceabd0d640073ce9U, 0x9fa14eed0fc1ed2U, 0x725e60623f8e1eeU, 0xf33a1be5ea20d60dU,
  0x301f607014afe7fU, 0x5030707e4f80c10U, 0x141a080acc01f703U, 0xfc1ebbf5e2f3e00bU,
  0x2814dae9141a2d3aU, 0x87f92af522eb2e14U, 0xf1fd07f9f1ead5f9U, 0xf70b0afbc204fbf7U,
  0x70bf10f2dfff9b1U, 0xf5f88116dce8cd29U, 0x340141f200de09e8U, 0xfea21206eeb1fb27U,
  0xcf08f40f13311bfbU, 0xfbc00909db0ed306U, 0x3efce02016feebafU, 0xcb253bfbe0200607U,
  0xe134de2f9749dbd2U, 0xe6ffa9cbcf4cbcdcU, 0x1bf11efa14ed04c9U, 0x39d911fc265dc0f1U,
  0xcbf13f8f42af7e4U, 0xdaf2211dfd001305U, 0x13edbbe502d78156U, 0xf6fd0403c92f1404U,
  0xedefcf15e6fc4d01U, 0xd9f9cd09e12106ecU, 0x60d15ad07ffff44U, 0x14180117cdf1ecd5U,
  0x1382826fae5e803U, 0x64cf220f4210714U, 0x1c5030cfc026681U, 0x6e30f101e14bb02U,
  0x5fffde0eb00f32b5U, 0xd2e9ca03fbecb9a9U, 0xe1ffdb05ebebe109U, 0x316e503f41101baU,
  0x813c1907f20fdb0dU, 0xe70071416d8f903U, 0xd1d5f819df1c2311U, 0x42afbeafd1fb713U,
  0x1e1e95e51d1c37d5U, 0xe4dc63912f4f711U, 0xcde8d0010ff1e6bbU, 0x54b618fb81e31e4dU,
  0xb40c0dfef13a1506U, 0xdb203eb24f69aefU, 0x5c451a26a0fa2c24U, 0x284927d12506d6f7U,
  0xfc441752fadd1c73U, 0xd8d0d81509551516U, 0x35b3178eef0a6300U, 0x11dc32c8e2e73caeU,
  0xfccfa427ff81d7dU, 0x37c3fd2736183330U, 0x263229e0e5c60bU, 0xae48f0e8e219cc15U,
  0x202f104a4e5f117U, 0xecd95781dc4420d5U, 0xf91119eaf3031804U, 0xf7e9e2181428e400U,
  0x2006f4fbffa81007U, 0x120c09250df5001bU, 0xf3e5faead1a8ce20U, 0x23cff1ee1cbfe7f1U,
  0x811a05b7c92ab021U, 0x11fe82124700f6d0U, 0x5efd56f1afb1dbbeU, 0x52204119e44bfcc1U,
  0xb422beaf3cc5fbcaU, 0xfec036db2e5b3c10U, 0x28fffd0d6afcb1bdU, 0xd8bfd3edc70bcd25U,
  0xfcd3daf0b809e8dbU, 0x8e233fa1eef8abe7U, 0x2117fcce3f1336edU, 0xc418041d56481ae9U,
  0x329f69dc0a81da01U, 0x40dbaf2f90f10ffU, 0x25eeff2411faaf01U, 0xe7e1d1bdfffd0106U,
  0xfc2df0db02e2d553U, 0xe9f3d54e2de5c217U, 0xccd3dfdd34f9e408U, 0xdde03ed734e7060dU,
  0x1bc533f010f71a1dU, 0xe7ce4e22f13f0ef9U, 0xf204fc00e61ad881U, 0xd005dfe616f5203bU,
  0x1c0a0fde211f51acU, 0xece0faea1506e0edU, 0xb90d0922104af92aU, 0xf87f2e04dd0206d9U,
  0x32718111ef5f208U, 0x10e7110efbc7d19cU, 0xdacb0805d82a03c9U, 0x1a1c1bf8f001ce16U,
  0xfc12ea0bd2b1fb05U, 0xad612f8d133c3faU, 0x812903ff360571edU, 0xa0bfdf6d7ea0aefU,
  0x1008f22df600e908U, 0x2e07ce0e06fd1d16U, 0x22a190f07fc1813U, 0x70be92425e8ebf3U,
  0xec27ef220e2ae2f2U, 0x8c5d6f21932c13fU, 0xaebb110ae8f3d607U, 0x15f9f803fcfd0a0fU,
  0x970f1111f4936fcU, 0xe332040afa32f323U, 0x4205f70dfefed9ffU, 0xb7f0be20132f211U,
  0xec4bb12ef90edbe9U, 0x121bdb0800028135U, 0xe20a2d35eff21bedU, 0x11f0f0149c1f01e4U,
  0xae822bc280cd3edU, 0x5633d43d1d420f17U, 0x28d81a30e4c68d0fU, 0x1c3c2cb417f40ce3U,
  0x2d232b903fc09cfU, 0xbf4cae87914c8f3U, 0x2dd71007e1daf8edU, 0xedf5292b26f40d0bU,
  0xee204f0e0d5b43dU, 0x9d9f76db0e17da92U, 0x121b47187fe119U, 0x24e2e792db08e029U,
  0x8f71cf9ee05fc03U, 0xd802c5fc05ee0de2U, 0xf1070ee3fd13f9c9U, 0x165df0f6e512ff9aU,
  0x81122504fbfbfffbU, 0xfe0dfdebf5f4f618U, 0x1040020eb1001f5U, 0xfb023fe50515d206U,
  0xfb0cfeb772efd970U, 0x240bf30cd4c7c7f5U, 0xe32bcb1324f429d2U, 0xe22fc4e9a481f70bU,
  0xfc43e011f2652836U, 0xf4f7fcf5eedd0bf4U, 0xe1e2f4fee7cb263dU, 0xea0704ead41afafbU,
  0x1f0edfa0f1fb01dbU, 0xf948ef1c42f018fcU, 0x7ce4d4db8a27be0aU, 0x383219ccea4e01e3U,
  0x2f0bfede2126f41cU, 0xb41c7ff33007efcfU, 0x2832e4ceea65db67U, 0xa0ee915fc13ffe8U,
  0xd5f2e231fb3c8a04U, 0xdbf60a0df51505d4U, 0xf9f7f814e2b41681U, 0xc82633ee16f41bcbU,
  0xe206fae5ff0018e8U, 0x13d5f3ed13030422U, 0x3deb13ed01091006U, 0x18f433f9e81e490cU,
  0xcdf862464e0f0029U, 0x5bbba908cdfb01dfU, 0x1aec1429fbfb0c2eU, 0x38d100fe1cd3c516U,
  0xdc0a311df26debc2U, 0x23012c1d9f6a13eaU, 0xc7cf155f0ba793a0U, 0x44c7f5fa86664faU,
  0xfaf2e610db0f4ff7U, 0xdff071437d29ceeU, 0xfbccdfee0048f76cU, 0x10da390dcd132bd3U,
  0x7a15fdfa14230d01U, 0xdf7fd1e71f2e11d5U, 0x18101b0c0c38e0faU, 0xeffee4f9ebe12818U,
  0x1f13eb0802ec11ffU, 0xe0fbb0fc1014f624U, 0xeb17f40ef6810bf8U, 0xff53fcf5e8e80af4U,
  0x353c23e808090bf2U, 0x12df3cffde205d2U, 0xd026e13fd0db0U, 0xfafdf3f60b03d2ebU,
  0xe85a2330ecd340f6U, 0xc591aacf434cac1U, 0xef54da4461afd4cU, 0xfcf221311a0fb5daU,
  0x1fe3d72d0808cae7U, 0xe1534f51c71a1453U, 0xbcbb814bedff98cbU, 0xeea67005e318c93fU,
  0x4e20ad605a40721U, 0xec7f211149fcc0f6U, 0x2bd0f2e73df4e503U, 0x5f562f50820d7f8U,
  0x1fcd1905e4d9edb6U, 0x23091619ff18eac1U, 0xbdace0ffe4e021dU, 0x19e3070a151ee6ddU,
  0xf0ffc123220fda2fU, 0xf2ef15e3af1807f4U, 0xe44c02fe21e0cef8U, 0xfb1ac203cab2eae2U,
  0xee4fc3ff1c2ff22dU, 0xd231d2e6440efd06U, 0xebf917de0581f007U, 0xf1f8030bfc080e19U,
  0x2903a7f2e5fa08f9U, 0x19efd7faf703edd5U, 0xeafc054005db1af8U, 0xcc9f905aef608cbU,
  0xdb4a05fb00060d19U, 0x4120006ed10fefdU, 0x1513067fc90aeb0cU, 0x81a1c12f157d5ebU,
  0xfa1e14d4ec8122e7U, 0x42d011c1927d602U, 0xb8d0f6f9461617fcU, 0x19073bbf2104e80fU,
  0xf6e203f633d6bbd2U, 0x63ffbaffd50ceb1dU, 0xf2e3f0210de11fe0U, 0x160a06f6f62a13fbU,
  0xffed1e37f35305d7U, 0xddd8b1e7e907ff64U, 0xcebf901d6cef6d2U, 0xe820e2f8170af47fU,
  0xe39cea0429272732U, 0x4c5e6dcf2dff9f1U, 0xbd0fc6a12dafff6U, 0xc4ff380b07f8a205U,
  0x1ffcccfffbf6e2faU, 0x40afe0b0b09e081U, 0x300020006e50601U, 0x130ffb04ee0503f7U,
  0xbfd190ef9000606U, 0xfff7fef3f7faf106U, 0xf0fe056af4faf9eeU, 0xfb13e2fbf90edaf7U,
  0xf211d41f908130cU, 0x20d8f108190be340U, 0x81f4d607ed220d29U, 0xf418fc1efd190f09U,
  0xe2ed2f412037401cU, 0x230e0626f2f7d317U, 0xdaf6071c0ef9528bU, 0x2c4252003bea1bfaU,
  0x70550fcf9f82b08U, 0x1e1600ff100f8124U, 0xf6fd1711010424U, 0x2f9fe00fa11ef34U,
  0xfceef50d19f700ffU, 0xfd02fa04f9e900f2U, 0xfbf2ef1406fced00U, 0xf2f93905fc03de01U,
  0x2007f06cce037c0U, 0x1af00dea1528da0fU, 0x16f12d23060b102bU, 0x24fa46df24320018U,
  0xf1f4d51e0832c0f8U, 0xea27c42ef744f201U, 0xbebe572e7df1f0eU, 0xe50248e3e712e71aU,
  0xb0d9ebe60309f207U, 0xe53c35dbf1204cf0U, 0x7ffffbce58f82ee3U, 0xc6d40f9e4ecdd23U,
  0x51be03f1e5f7e832U, 0xe9b6e831f7cde912U, 0xf708bdfedef8f3fcU, 0xaab614d4019cc3d7U,
  0x2231ef061415fad3U, 0x22015a080402f1f5U, 0xc5f91a810d93db5aU, 0x21e70d2e1c01e5dcU,
  0xcf5f307f108f014U, 0x15b7ff2af8180341U, 0x15f8f9edf8e30200U, 0xdc308ebc01100a20U,
  0xf03a81f4d0ddf705U, 0x122f11117552da1U, 0xdbedf0dce833350cU, 0x2bd01503f1f6eadaU,
  0xf017fd050bf7fde7U, 0x2151c03ebf71221U, 0x2106f2ac9d20dcffU, 0x1c07ddeefb0ad50eU,
  0x1b01ebe4fe3bfd07U, 0x184908e703e8d7faU, 0x7fdd10c3e1dd9a0dU, 0x1e81ae3f50be00eU,
  0x3a09fbf89510c214U, 0x31ee411ef29081cU, 0x2e1a7091219280aU, 0xf7cee6ebf61e19f0U,
  0xe8fbcbf2f2d3ce3cU, 0xe6c5fce222e1c90cU, 0x51d9a08e7b1badbU, 0xeee6e9b1d2135d20U,
  0x14f9ff0cdb03ab1cU, 0xa649c2e9642be0fcU, 0x3d7f0711031403U, 0xdc255d8132164f2U,
  0x3e7d71919d1c8f8U, 0x10d80b07f2ee01daU, 0x12f0fce709d4fab8U, 0xc82509fda6a504f5U,
  0x2a46d9ec2120001dU, 0xfbebf0a11ee90310U, 0xe11813d7060b7f58U, 0xef3b534f7b70c1bU,
  0x2fc121e729deceedU, 0x104b4453cd0221fU, 0x35d2f71e22fc4ef3U, 0x81ad35fff7a7f202U,
  0xf508ce018ff3a5bcU, 0x160403edb9c4e1cbU, 0x408f1fc2f15eb00U, 0xe5d7ebf430e308eeU,
  0x609e6e2efa8f3edU, 0xfbfe15450b3ad1ffU, 0xb2cdebda130358e6U, 0xb001f1bf0ed03feU,
  0x6081d0de5d8d892U, 0x7f120f2ef4ff201bU, 0x18e3fff21337f40aU, 0x9170a171a08fff4U,
  0xb0402f9edf90615U, 0x6fe14f2ed1310eeU, 0xcf80dfbce0d0f03U, 0x500f6f24e2ff903U,
  0xe8fb7fe1fd122f12U, 0x2fd0312f6ec1a17U, 0x16fcfbfe05e3f80bU, 0xafcfad1e41ae4eeU,
  0xbf802ebd07f0703U, 0x2216f3fe0d45f8e4U, 0x73e41bff1e0ba99eU, 0xd291230f90312edU,
  0x39152bf190ddc235U, 0xa316d409f8e3e3f5U, 0x19c4e5ddec63ef27U, 0xe9e902effb2d109cU,
  0xbf4fbe4ea391a05U, 0xf515f70c08e5c80eU, 0x1f100b02101c811cU, 0x12e7ce16f9f608fbU,
  0xfe1e11eafde5f317U, 0xb91c25f4fa1809f2U, 0x904fb150422f5f0U, 0xfefdf6f40408f0faU,
  0xef13e7f6f705eff8U, 0x90ca6fbf709e1d8U, 0xfd05ef081702e2U, 0x3f603041908f31cU,
  0x81ff020705e60afbU, 0x1532fff907fafe06U, 0x1003f5c707fdf50bU, 0x3066bfc151ee9f9U,
  0x1605fee313eb0ffdU, 0xffc0af43fbf1181fU, 0x14ce08011905f1fdU, 0xf8c67ff2c0aefefbU,
  0xcc138905b22befe9U, 0x12fdf413f4ecf405U, 0x535ddfb1f331accU, 0xd80805340002e6f5U,
  0xfd06fa11c5eeff1dU, 0x281f9df0302d300U, 0xf113ff0206fa04e8U, 0x27efcffb11121518U,
  0x5eb2dfe18d9270fU, 0x15f8d3e5092ae9f8U, 0x230021f8f5d7ec16U, 0x40ae6b7f4fbd6f7U,
  0xf9ee0d041fa40b15U, 0x1cf6030d1dee0100U, 0x8112d005faf23eefU, 0x11fdf449fae80af8U,
  0x16fc050f0301f7f7U, 0x11f230eef1ecf3e8U, 0xff020107f50cf614U, 0x1aec03fffb08e612U,
  0x2b0b080ef0c90213U, 0xd81faf0160cdb10U, 0xd5d20afed807fcf5U, 0x13040ade0c03091aU,
  0xfa11fa036df40cf8U, 0x1ef7e5f71efeecf2U, 0x1f052ef0eda103eeU, 0x2f1cfdcd3715fb39U,
  0xf507091df10fed7fU, 0xee1609f410260ef9U, 0x39ddf50027ed05f4U, 0x1f8d3def10417fcU,
  0xee05fa010b16f54bU, 0xca000403fa0b1802U, 0xf11a09fd0e1b0b08U, 0xf0f409f9e1f2f10eU,
  0x11fa070381e9efb0U, 0xdbc0306f5098c3fU, 0xc809b103bc24ebe6U, 0x45e9130036600df8U,
  0xdf0340de239d36d5U, 0x3414c2d3fa3c00deU, 0x27132873e805f437U, 0x2221d7d4201605daU,
  0x1bbe03d30d57d4fcU, 0x9fcbdd10e03e90dU, 0x23182e031beda5e9U, 0x14e011eb2e0d1d00U,
  0x15d5e70be2dfdd3bU, 0x812cf3b21304d9a1U, 0x20500c032e5ca118U, 0xd5f1ccdbe5f7a42aU,
  0x19e7ede3d73c0b94U, 0xc57f18e52a13ba2aU, 0xf5f0f621b010d116U, 0xefce481a2a3d01ffU,
  0xedb02ee9d4af27e5U, 0xec1017fce7f4d4e6U, 0xf52cf22e0a453b07U, 0xf15fdd713dae010U,
  0x5f84ee9261c4481U, 0xb07d30b1c028f24U, 0xf3f4de1bee20eb2eU, 0xfaedfe110d1ef835U,
  0x30110506e1e2df09U, 0xdd2531fe1e04e8feU, 0xeb12fa571225f1e3U, 0xd30820e010000118U,
  0x26202f0715bd74ffU, 0xb31d12dc1fffa6c6U, 0x63e13a97e94ffd32U, 0x1d17c408f47fafadU,
  0xf429ec0b3ae53c1bU, 0x2e39176ef5e5270bU, 0x29c1c45dccffb287U, 0xed517c18056493f3U,
  0xf4e7f3dff9e026f5U, 0xfe73301f3eae9cdU, 0x17d9811acf280109U, 0x1b043f2bbff51cd8U,
  0x83ab5cde9ff8ffdU, 0xf40beae1ffefcdcdU, 0x370b06020926372aU, 0x5dde71a0ed60bfbU,
  0x16fed2f9ebf7d106U, 0x1910f702f200eca7U, 0xfd0802a204e7f217U, 0x2dd4fe01f5fc007fU,
  0x18fa1213fc02030eU, 0xfe02ff05fa0d0b1aU, 0xaf10026160e0809U, 0xfaf9e2fbf6e8ef00U,
  0xf52aedd4fd81fba6U, 0x617f111f353eff1U, 0xeea110f4fd002201U, 0xf6ca363804f515d8U,
  0xfce91914fac8ec83U, 0x7afaf91ee5fc183dU, 0xf5f7f0faf50d07edU, 0xae702042e0bf91aU,
  0xf112e3ff2329e8fdU, 0xebe5e010f608ec7fU, 0xf6e6eec8f4e6fbf6U, 0x9f0a20ec2cd5febcU,
  0x49faf7f8040aeffcU, 0xe502fa0cf1251303U, 0xbaef09b6cd0e10fdU, 0xfbf1ce20fc0f6d0bU,
  0x37dfffffcb2U, 0x17d0000025cU, 0x59800000176U, 0x64000001f8U,
  0xfffff9b600000358U, 0xfffffde400000599U, 0x2460000051fU, 0x60a00000437U,
  0x1ddffffff7dU, 0x50f0000016cU, 0x58f0000081aU, 0x196fffff7b0U,
  0x2ce000000c8U, 0xfffffd18fffffeeaU, 0x53300000017U, 0x53600000110U,
  0x378000000ecU, 0x38e000005c2U, 0xfffffdf3fffffff9U, 0xfffffe0100000417U,
  0x26affffff53U, 0x8260000044aU, 0xffffffe8000000d2U, 0xfffffe9d000000c3U,
  0x40dfffffdedU, 0xffffff1f0000027fU, 0x10600000333U, 0x2dcfffffc57U,
  0xfffffe88fffffdb0U, 0x6c9ffffff7eU, 0xfffffd2e00000108U, 0x11d0000070aU,
  0x6e9fffffdf5U, 0x5fd000005d7U, 0xffffffea00000412U, 0x4e600000480U,
  0x5dd00000094U, 0xfffffa7600000038U, 0x5920000061cU, 0x1ed000006c0U,
  0xe3ffffffeeU, 0x60fffffc67U, 0x375000003bdU, 0xfffffb93000003aaU,
  0xfffffcd6000001d4U, 0x15dfffffc90U, 0xffffff5900000060U, 0x209000004eaU,
  0x334000002d2U, 0xfffff90f000002b6U, 0xfffffc7bfffffeb8U, 0x13f00000308U,
  0x1d2000003a5U, 0x4f50000031dU, 0x470000099dU, 0xa4fffffdb3U,
  0x22a000001abU, 0x4470000044fU, 0x9e00000142U, 0x297fffffe18U,
  0x1b900000552U, 0xfffffcaefffffef9U, 0x173000004a7U, 0x3830000044bU,
  0xfd3810ad5de47f2U, 0x81ff7b81ac86e8b0U, 0xe58bde55aab7febU, 0xee30cfefd1e31ebbU,
  0xe9435feabad6f0abU, 0xa0c64f7fd976e22cU, 0x8179fe817f817fbbU, 0xe0fd8130f3e6ff13U,
  0x94ded3f10ac9f85dU, 0x1fbae50a540b81bfU, 0x7fcf0beb4133b8c5U, 0x7f09d7895481cdf8U,
  0x86f60a81e0811dcdU, 0x815c39fed1410e14U, 0xe88128b414fdb33bU, 0x77ef7feeead3e71fU,
  0x938588d71c0b22d1U, 0x50d8c9237f6e3aeeU, 0x817f7f817fc7c481U, 0x38181eaf1f75638U,
  0x492ede92e2a481ffU, 0xee7a330ecc01ed7fU, 0x31de09663ac1b29eU, 0x55e6cdefb80c1f79U,
  0x7ff081e1ccf5fceaU, 0x7f7fcf4147e810d6U, 0x3c7f79f5c8f1b556U, 0x891af781c1bf08a5U,
  0x3b22369ce08f14efU, 0xeb7f0ed09d23c2afU, 0xce8bee4cfb4d8177U, 0x81864d16818d7fd6U,
  0xef85a50debf991ccU, 0x2c51cb49f0f2b302U, 0xdb140df436ac10fbU, 0xe50805fc18de90f6U,
  0xcc44da8b818108aaU, 0xefce4ca211070446U, 0x1b95d3181ed4fbf8U, 0xd207b80915e7e805U,
  0xecdb288135e251edU, 0x101cc5f7043e2da9U, 0x23fd981010caddaU, 0xfbdbf7b8e8d2c9d2U,
  0x871310a5130f8fdeU, 0xeee9bff4d212a016U, 0xf3c4bbe7fd000c48U, 0x608d87fc8622de1U,
  0xf836f1bd25e17f77U, 0x69d27f2cfdbf7f81U, 0x4fe0208e67f1d08U, 0xe95b1b7f925b4b01U,
  0x998181b3e1510e3cU, 0xb489acaf817fc549U, 0xa1686cbd7d24dc7fU, 0x87f50167f087f92U,
  0x4f7fd50342947f7fU, 0xe313f58d81f59c54U, 0x2df614ed23672dd4U, 0xea432aa87fea25f9U,
  0xc3f7dafd572408feU, 0xda19377ff67f2981U, 0xe6bf490e7f1a1ef0U, 0xf8e6e7d0ce81e87fU,
  0x131ce2c77f7f7713U, 0x1598f31ed77f7139U, 0xb8d5f0e516728551U, 0x7f9f73df7f7f197fU,
  0x7f8e9e9ffb62307fU, 0x9f7fcacfdc1281ccU, 0x3fe57ff49717ff6aU, 0x7fde961fcb7fe37fU,
  0xf48c3fa81d9ffd3U, 0x3d72dd2698f4d817U, 0x16f504c581be7f7fU, 0x3c477fa824da7f81U,
  0x487f81d55911f17fU, 0xdcf75aa511390399U, 0x7f90ad7f137f527bU, 0x2d81d8ce5aa9f510U,
  0x8df18b8500d91faU, 0xb2fb021d12360026U, 0xf7ddfc22e54fbbfeU, 0x16faea03fc50810dU,
  0xf28a8c819f220244U, 0x816081222f6321d0U, 0x1b816424f9cbfbfcU, 0xfb8d07ff02abf48U,
  0x2010c5f6070d16c1U, 0xf13281048e7f1d7fU, 0xf6d30df0ece22543U, 0xa8163c90dd02b95U,
  0xb4fce5fe7ff88106U, 0xdf1981853070d4e2U, 0x25e99d36fc35ef3bU, 0xf6f40e2c4435e81eU,
  0xf6130269f9140bf0U, 0xebe96b1050914ad8U, 0x20b94105c9ef0f05U, 0xdb66fcf901f3e3b3U,
  0xcf17fab81803fddaU, 0xaa281cc995150f24U, 0x86a79dcdc6fba3fdU, 0xf2547291b055daaU,
  0x37f10cf9341d6d89U, 0xdde50881c5eb8adaU, 0xd717dcfe1c81f8c8U, 0x981bfab770ebe6ecU,
  0x96031e3dfa5ba6d0U, 0xe9ceb9de1cf67f86U, 0xec063ca2bed53381U, 0x9fb19500d2b21a14U,
  0x7f7f0e7f219dac7fU, 0x681de3da86f560dU, 0xc2c297fc064aa53dU, 0x6cd33f53e33da19U,
  0xf4ddd98533554c05U, 0xdec7f5edebf2f8baU, 0x23c710e5f25c50ccU, 0x44042efae522f035U,
  0x86c89cebed4fef32U, 0xebaee0d6a1f518fdU, 0xc6cc810bcc4d6410U, 0x45252bd0c5dcccfcU,
  0x5ae3511be45fae2cU, 0x10e201bb7fdf7894U, 0x887fcaf2d6348eU, 0x6fcdd0dd60e7e31dU,
  0x111c1650fc002d0fU, 0xfd3bc92208f9f200U, 0xe807f92eeea4cef8U, 0x80d0afbdde192e9U,
  0x150fd9a4c5e5fdeaU, 0xdab91e10edd656e3U, 0x1c19f104eb060bd9U, 0xfad54e803f4d1d5U,
  0xd9c515e00c7fea33U, 0xfda0d8f6d2fa2d23U, 0x9bee21da1511d1deU, 0xaff5bae9e3e10bU,
  0x81e50722e8eca2f0U, 0xeaf445a3211e45ddU, 0x54513060c04f4d2U, 0x5220efd370500U,
  0xfffffeddfffffe5cU, 0xfffffcd7ffffffa3U, 0x4baffffff07U, 0xffffffa7000001ecU,
  0xfffffaea00000275U, 0xffffffc6fffffeedU, 0xfffffd9cfffffd89U, 0xffffffb60000034eU,
  0x302ffffffdfU, 0xfffffdeeffffff3cU, 0xffffffa2000001caU, 0x45400000006U,
  0x2fbffffff1dU, 0xffffffe3fffffcdcU, 0xffffffd1ffffffbcU, 0xffffff02000000b3U,
  0xffffffb5ffffff52U, 0x54bffffffa1U, 0x61d00000b49U, 0x760000030eU,
  0x1d0fffffe6cU, 0x45afffffb8bU, 0x7a000001e4U, 0x7d8ffffffdbU,
  0xffffff5d000000caU, 0xfffffef4000001e6U, 0xfffffcc0000001cfU, 0x19a0000031dU,
  0xffffffb9fffffdf0U, 0x2fffffd75U, 0x27dfffffd0bU, 0xfffffc5d000000f2U,
  0xfffffc27ffffff7eU, 0xfffffff1ffffffdfU, 0x6100000033eU, 0xffffffe1ffffffd3U,
  0x2f5ffffff65U, 0x61cfffffebcU, 0x58500000309U, 0xfffffdf4ffffffb1U,
  0xffffffbcfffffe7aU, 0x1e4ffffff88U, 0xffffff8c00000447U, 0xffffff79ffffffeaU,
  0x100000053cU, 0xfffffc7a00000665U, 0xfffffcb6000009baU, 0xffffff4dffffffe1U,
  0x638fffffff1U, 0xfffffda4ffffff93U, 0xffffffdf0000036bU, 0x416fffffe85U,
  0xfffffde8000007beU, 0xffffff80fffffb1bU, 0xffffff98000005deU, 0x45dfffffe4cU,
  0xffffffeefffffe87U, 0xfffffef5fffffd1fU, 0xffffff97U, 0xffffff8a000008ccU,
  0xfffffee7fffffd5fU, 0xa500000485U, 0xffffffbeffffff61U, 0xffffff1c000006daU,
  0x5c0ebe0213fb1bffU, 0xfa5afdfc1c18e027U, 0x2ce00c21f7d81902U, 0xfa10e215080ffb0eU,
  0x22fdc9e211b7fdd8U, 0xf4ccfedf052af0f8U, 0xf4e50a2eea21f525U, 0xf3e6f4e8f20c0705U,
  0xfc0bfeb8221bf407U, 0x1c04e744fe0cfff3U, 0x241ef3e500f5dd16U, 0x420719b205ea3307U,
  0xfde1128110e8c327U, 0x6b092105e81cc4f6U, 0x162edbf7f2e6d5f6U, 0x10f9f6ec2af71f22U,
  0x2d3149fd92fbe3e9U, 0xc9f5dede327310a8U, 0xfb240f4008d9ae11U, 0x4445284adae2eb34U,
  0xe14211feaf416daU, 0xe7ec19c423d3fa9eU, 0x224222f3ce1919e6U, 0x150ba6310bedf106U,
  0x18fd24d5fffd5ccaU, 0x336c4f2ed52ccebU, 0xa7141eeb35e903e3U, 0x1c8fdd46f8470a40U,
  0xdc5ee9f4c6fdcaf9U, 0xf23b9e7dbb3fde4U, 0x250efe0b7f021741U, 0x4431fa2a04d105d2U,
  0x7cdd3bfeced1402U, 0xfe01e51bf8098108U, 0xe8260a1604a51ce2U, 0x4533f0d9fddcd102U,
  0xe922ec2af2213bU, 0x9fd02eb15d4f1f0U, 0x3a6b9352e103a04U, 0xf9f655c4ed07df12U,
  0xe9cdf1d7e820ddfaU, 0xc05c2110dd410fbU, 0xccf1c0614eb0cf1U, 0xf931fde1e73c13dbU,
  0xf1d4004bdebc01eU, 0xe5d3ced815a7201dU, 0xd4d7f704843ad8d4U, 0x1ff32b39e33cd303U,
  0x46202600baee1507U, 0xe70607ec3b0af70fU, 0x2da4812fc06b755U, 0xfcfbf9ff18032bdfU,
  0x200208f943207f10U, 0xb1cb0bf00eed1240U, 0xf2eb14e52600403aU, 0xeb22e3dce8061209U,
  0xd723eee9ff3c10e8U, 0x2ed212912f4061eU, 0xa3a30e8f2ea0700U, 0x601ce8060ce61b06U,
  0x10093413fa3a1a16U, 0xff0e50504f518fcU, 0x1e1c71cfde85bdbU, 0x290b1f0b3fa6e114U,
  0xf0cf0c0f46e50ae3U, 0xf20901e416ec04e1U, 0xde2b03fe080720edU, 0x7ecb1efcef111c9U,
  0xd0cdef001602ea02U, 0x440716163df82d12U, 0xef8ea02f3e5070cU, 0x1433fd31c1ffff4U,
  0xe10eb27fd17fa0eU, 0x10d221ce25e52208U, 0xdce7ee1f10c7fb10U, 0x11df1027d5fdd909U,
  0xa02df479a0c0af7U, 0x1381ccc60a300e14U, 0xd015d421b126f312U, 0xfa09123dae03d41dU,
  0x70806070df8c5ddU, 0xf414b90ddde82ad4U, 0xde0be0e510c509ecU, 0xd708ddd5ed3effe7U,
  0xd31c01fe273a15afU, 0x1a20042bcb010dffU, 0xd8f606e7d0f7eefcU, 0x1d001496f220f42eU,
  0xcfef37131e0638d2U, 0x11f9f8087f00050fU, 0x9fbebfcef1119U, 0x5d02a23081e9927U,
  0x5900de2019fb1ee5U, 0xc81cfe3122c7c7eaU, 0xf72db20bed010ef0U, 0xf7decbf41503ff23U,
  0xa907fc080edae0ceU, 0x5523f929ddf9e431U, 0xbbf0ef040509b8a5U, 0xa01cbd409363424U,
  0x9c1ca610323ac0fcU, 0xf2360b3a0602dd0cU, 0x12fd19f625f205c7U, 0x160118011d1c09deU,
  0xe59b34dddf17c8faU, 0x7f715e4e92bef2aU, 0xd0c7f1f805e811dbU, 0xb458eae0dee005e1U,
  0xf7ea9f003fe9f7e5U, 0xdeb614eee8152018U, 0xe9e9fc0ae334cbf3U, 0xe2f92bcc097f09d9U,
  0xe87fdb03f8b910a8U, 0xf30dfbec10d8d622U, 0x25fe08dafff63e0dU, 0xe407a7ca43f9ddfeU,
  0xf52e1e0ae520f74eU, 0x1109668ec20e0a0aU, 0x1afd221ef317111aU, 0xe911af6ceaf1ffeaU,
  0xe6362e0d08f7c516U, 0xfae831f7d93b0023U, 0x193e012122162800U, 0x20111134fcf6f5e6U,
  0x19c21108fffc0827U, 0xdc90320fb1526ecU, 0x40efee26cb29e2f8U, 0x1bef0fadcddaeb12U,
  0x2502e4fd1bf1ddddU, 0xebe4fbf01bfdf907U, 0xf2661dee06fe1803U, 0xbff07010bec220fU,
  0xfef015dafd10e307U, 0x25ff1bf6fef500e3U, 0x60bff100df209fbU, 0x15f0f9ebfbfa07deU,
  0xfafdf3dcee1310f8U, 0xafe040a000f13fdU, 0xf2f712010e200010U, 0x3b0bf5ac15fffa0dU,
  0x1aef0181fb0a1d09U, 0xed06fafe22ec13ebU, 0x2f9e8fffa12fcecU, 0xadc23fee6ed12efU,
  0xc0d02f51508f603U, 0x27c8a9200db3e2f6U, 0xdbef2f0a0efff6f5U, 0xd8c9180ce4f3ffb5U,
  0x7f7284b29174c05U, 0x4e12f11407fcea15U, 0x81eaeffd111025b8U, 0x5ed041bdddcfc0dU,
  0x14171ee9f014edffU, 0xfa0cf1f414dcabffU, 0xfd111e1be504fcb0U, 0x1702f2baaa071ebbU,
  0xc5f0f43aed35f714U, 0xfd120c0d01f3f3e5U, 0x800fd011fd810e5U, 0xafe1efb115901ebU,
  0xf51d09a0fe10cad9U, 0xeb060f0a08310707U, 0xffe3d900f2acd8d3U, 0x717cd0405d6ef19U,
  0xf2e609120f0bfac3U, 0x14dcb8120df027c4U, 0xff0cd808cfffe7dcU, 0x4d15f32004f6e20aU,
  0x9e92b0409e805d5U, 0xdb2a05f8501c19f0U, 0x21af40cf5dbe0f4U, 0xf9dc1f0407fed40cU,
  0xafa81ffd6f417c6U, 0xfb06d1ec11de0bf7U, 0xe47ebcaf4f9fcecU, 0x82df80a0002060bU,
  0x1af15115019271aU, 0xeffe02f32710f8cbU, 0x4ea042aee0203e4U, 0x28e81038f2ea20b9U,
  0x26e22c111d1b1405U, 0x33e9047f090b10d7U, 0xf50afcd44214de2aU, 0x3092bf924c1c5f0U,
  0x222b34cff1a25ddU, 0x9030f9f2ebb1ea01U, 0xe2d4d361142508efU, 0xd0f409ac2b23dfd6U,
  0xe3e70f4df12b3701U, 0x26d4cb353dd9fcf6U, 0xe70df00f2ee80ca8U, 0xd6ceea34dba31fe5U,
  0xf9f0fdfb19fcfff2U, 0x7f8ff0af3e60c1cU, 0xff3515f61ce2d80aU, 0x5907e30a0aad0cc2U,
  0xe70313f20fe10922U, 0xf7e20b200e162005U, 0xe7d6f11f020620d7U, 0x152e2e130fde81d4U,
  0x1bff31beff1e22acU, 0xdf0e3dc00b0b1202U, 0xcaf70f211623faedU, 0xfce1d1fa0737dfe4U,
  0x228f9e3fef34513U, 0x3818c4d018fff134U, 0xf5010f2345e1f72bU, 0x1adb0a221536d7ecU,
  0xf00f18e11c7fe9e2U, 0xfd1fb8fdf246dd5cU, 0xde042d1bcf0dda12U, 0x1ef247e2f501fdf9U,
  0x3f0208ef46f114d1U, 0x21edf4f436f5f1ebU, 0xf8ff041e0321fe28U, 0xe5f300e6fa07c5e5U,
  0xf4dbe5fb1402e1e4U, 0x61de30c6813fbf0U, 0xd80e1e06b5c2cd14U, 0x6fc03f6f729f51aU,
  0x1021ede2c900f34bU, 0x1e12ec0005d80f3cU, 0xe0c31c04ab23121cU, 0xe8f1f702390f1004U,
  0x211216e00d29dbf4U, 0x1419041e0f29f4f9U, 0x6e502d125fbbe09U, 0xffe2050df404f819U,
  0x191903020d360806U, 0xdeec0d4b1bd8fa11U, 0x11e9e912fb1819deU, 0x130681b5fdd9d31aU,
  0x708f4050d0ebffdU, 0xf91701424cff380cU, 0xb123f90c21e00405U, 0x1eeb0ddcf8f6000cU,
  0xfd121208f0151128U, 0x1031f209e6e2ff22U, 0xdc9cdffd7061bedU, 0x40a15e4021bc1e7U,
  0x5eceee1edfe0aU, 0x17151502ef020419U, 0xdfafd0403f8bf1cU, 0xeafe02811ce8f77cU,
  0x1be933ff0212fdfeU, 0xf92b050f06fe121dU, 0x2117f235d8120606U, 0xfee0f8e828ef3324U,
  0xfe070b0d37e10040U, 0x4080c30d1c404feU, 0x7010008af1f0e20U, 0xe1ef3ed0b062e02U,
  0xc01fce4cfd90ae9U, 0xfafb3a2200ea11dbU, 0x3d23ed16d6fa0fecU, 0x306f0fa21260b03U,
  0xf7f6dedded451aU, 0xde32020ad7f606e6U, 0x5ca1adffb22f817U, 0x2309edfeef0f10c7U,
  0xf1cf9f3b50d0669U, 0xbf72a150606d514U, 0xe60f47fde41906feU, 0xc209e6e5f037f51bU,
  0xf901810de01ce4e6U, 0xfdef9e3eee60fd1U, 0xee13f1151ed6e8e9U, 0x519fa20030fd708U,
  0xe707471503fde7d5U, 0x27feeffdd7d72de2U, 0xd88cb0260c082416U, 0x1ae90a161100f225U,
  0xe213e30de001e4c9U, 0xae290cf9e90ec620U, 0x9ff32525f5e2113bU, 0xd8e081d252db2b0dU,
  0x1a3408ef8e25e26bU, 0x28e84dccf6b70615U, 0xf9fa6f38aefa3052U, 0xd80af4cef0522148U,
  0xd9fcf62821f9d8e0U, 0x13f1eb2607fad418U, 0x283128dbe5e8030bU, 0x10306feefbfad503U,
  0xc51326e5e1d64331U, 0x152052ffe8072fb0U, 0x15eeb900ddd32bdcU, 0x7f828f414d3e3e3U,
  0x5f9fdf1041c0c39U, 0xef17fbfcfad3f7f9U, 0x1dfd0f2304e21b0fU, 0xfcf6fb7f19f42ab7U,
  0x2cdcfe17e611060dU, 0x100041e320120d5U, 0xd1e0a1d07010802U, 0x2102f2eb04fb13U,
  0x111c260e07062cfcU, 0xf937e6380cc10ffbU, 0xefffed084c0eff0cU, 0xedf002d1f821fe1eU,
  0xf3e10debd7082200U, 0xd32c707ee07fa0fU, 0xe73f2ef538b70dfdU, 0xe920ee31d1c6f7f4U,
  0xad106af3344b16d2U, 0x24d5d4f9e707123fU, 0xec0ba216a32ad3d7U, 0xd220d9b22a090eU,
  0x7fea04462322cb92U, 0x1d60f7f34ef318dbU, 0xfef0c106f2321e91U, 0x42e8f7ee08bff8efU,
  0xfce436efd02108feU, 0xd509dd260403151cU, 0xe3d2fed2ea0506d5U, 0xe200ece2fe94e7acU,
  0x3ceaf347c7e6fcd4U, 0xf5030f0ee5122d0aU, 0x1b07ed1a01bf2623U, 0xf5e9d2262762c7faU,
  0xd5ee02f9fd1e02f2U, 0x1a0208027f0704f5U, 0x429710cdcdf09dcU, 0xa11e708be0506f5U,
  0xf606e903e7f9fa09U, 0xfb29f41516f3eaf2U, 0xfe1bef22f7ee0a16U, 0x3fff9070bf8ebe1U,
  0x11e6f90014f0ff28U, 0xf60b0aff0502f504U, 0xfdebf9f3f721f21aU, 0x5e10fefb05f41305U,
  0x100df203f10bfb06U, 0xdfd2af807011004U, 0x11f7f913ed10c6faU, 0x5cf020eaeaf41407U,
  0xec06051b15fdc218U, 0xc902f51dcf4afdf5U, 0x401d70d052fcaeaU, 0x413702d2efff3226U,
  0xbd321e220bf3fc14U, 0xecd70ffe0502ecfdU, 0xf6df1eadf9260bceU, 0xf70e0e112b0181bbU,
  0x8f4e614ced63cccU, 0x6c6d0b949301ae3U, 0x1c110f090fd90611U, 0xc60b1008ee0ee5f2U,
  0xe91627fabce8fa1bU, 0xcdfab90af2fdfd2fU, 0xd0e8edfa27e5f2e7U, 0xd93ce6f6fd030104U,
  0x1907f2f2da0615dfU, 0x61505f23dfc03d3U, 0xd61a2ac820fbda23U, 0xd1f4022a47e4fdf5U,
  0x1b3309e7a4ff2232U, 0xfb064f212cedd01eU, 0xfaf92af8d0ff1dfdU, 0x1f08c60b32d7f117U,
  0xeffd80b1801cefeU, 0xf7ef040b13f8e5fcU, 0xfa1521e90001fbfeU, 0x44d31b2002f7f4d6U,
  0xf2850cfe1322e8eeU, 0xe309f905cbf40607U, 0x38104ed2aee22efU, 0x26201a2210f22edcU,
  0xf0b071b070e030dU, 0x1f1d1912ee08e542U, 0x2c2013e0f72f3b1bU, 0x1806170e15fe2500U,
  0x1f0e0509dc2031e3U, 0xfb7f28e6fe2195fcU, 0x2d0eb003fff3e256U, 0xf3110d36fec1eb07U,
  0xe31b350500f8ed16U, 0xeff038fcdff9f4ebU, 0x320bf1c221070f27U, 0xfcd4e5e3fd1ed9d6U,
  0xec1fc1f5d8f6d9f0U, 0xde141f0c180f35e4U, 0x1300093de0fc07eeU, 0xae0f109fc91e823U,
  0x41ee0f70f1117cbU, 0x2ffd04f215f3e416U, 0xf7f0f8ecf75e0912U, 0x1bfc17022e01260dU,
  0x55110f6e7220c01U, 0x122b5e04fce1fe17U, 0xfff20603fef417edU, 0x800ebdd17d2f7c7U,
  0xd9e3f60cf823fadeU, 0xfa000d09f5e8e5eeU, 0xfcee04eaf407ea1bU, 0x210f10e0fefb0001U,
  0xfdee1600f2ffef08U, 0xe2f6dd040a001c03U, 0x2a81cbf42a242b01U, 0xfa0b0ae0f411ecU,
  0x1fcbb17a824fae9U, 0xf14d8e50e0b0702U, 0x23e6d52dddde82f4U, 0xf702f2a7eb04e23aU,
  0xde191d63121d0ccU, 0xd4b981cc3b0f0500U, 0x220a08390f32c95cU, 0x22cf2ecaea0b0aefU,
  0xa22d83d5b0cd112U, 0x8031b2310bff90dU, 0xe822e9d5311efa56U, 0xcb1c00a003e665dbU,
  0x47edd9abfce00110U, 0xfdf61a2b2311e45dU, 0xfde522c8d2fb011aU, 0xe60dd001020d1ffbU,
  0x301fbd6cdf911f3U, 0xfe2ce3212cf717e2U, 0xece80ce235feca38U, 0xc301f11a3a1006e3U,
  0xf23624fac2123849U, 0xf055823eaebd340U, 0xfe3e0df115082cU, 0x21f2ed061912f709U,
  0x1320072ff005f7ddU, 0x202241022e1df0cU, 0xf81401070cc8ec0eU, 0x2cf83b3afedc10f5U,
  0xdd11e1625130ffdU, 0xdf050318e2e90f0dU, 0x1581fbea2bc338f8U, 0x4f000221d05f2f5U,
  0xde9e9c5eff4f911U, 0xf70cfd0de30bfa0bU, 0xe4e9ff0207b41802U, 0xfef5f0fdeb1229ffU,
  0x2abf709081805b4U, 0xf81d8fdfdf50d0cU, 0xe011041327120d01U, 0xedf816f5fa263115U,
  0xeb02f50ff3f0f8f6U, 0x905f00134fce6fbU, 0xfb0c060120d59d06U, 0xec0ff5f7fb2bec06U,
  0xfa0fd2fcfe0308c1U, 0xfa090f00f1e5260dU, 0xecfdc0fedef5010eU, 0xe20c0606ff1109fdU,
  0xa13fdb311524faf3U, 0x16ffe3d8d9f1ed17U, 0x4fafda5dc81d4ecU, 0x20e0230f038cc7b4U,
  0x41fe1b3e64edbd98U, 0x2db3e3d712d820acU, 0xd6102b4ad1eedd25U, 0xff0a1d20796c223U,
  0x4c56e30fce18fb6bU, 0x17e221b1aee3feefU, 0x6830f907ef5951f3U, 0xfefcd71612e46f29U,
  0xfd11e1450dfe586fU, 0x294e50fad30284a5U, 0x2353f0cd96229d52U, 0x4cae335d615e9e7U,
  0xf6f0d4d8f90004deU, 0xfef3edf960d8ceecU, 0xfe2077e5fa200bf2U, 0xafa0ff611d5e5dfU,
  0x5f9fff8ed0b2d10U, 0x1ff4120ef9f3dafeU, 0xd60c0e00f3e511b3U, 0x24f6162506ee01f5U,
  0x26ff1df9fcdaeb1bU, 0xf61900f802ededf1U, 0x10061912fe12d3fdU, 0x7feee8f2f1e60803U,
  0xff07060ce93d25edU, 0xe8f0f80b1beefdf8U, 0xfb17f5ad0d15fa0fU, 0x61003cf9cfed15f8U,
  0x21d537212007eb49U, 0x3219b353b175c418U, 0x62e23026c9fefebcU, 0xf3031d01d10a7f2aU,
  0x68095202f116ffd6U, 0x47f6e54d3ec606ddU, 0xa8b2cdec7c8f2ccU, 0x3673efcf00e5b70fU,
  0x14caccfcd6ff57b5U, 0xdef7c9e60826443cU, 0x332bf3fb4419d4c0U, 0xecf916fcc035d1b9U,
  0xe9293c16a02d6c24U, 0x1600d40514fa29U, 0x93bdacd151c8295bU, 0x1af6d11407e4ad03U,
  0x3c2b940bec35f4e3U, 0xfd6d2bde24d319d1U, 0xf0443f2daf9044eU, 0xfa6421315507f5dfU,
  0x11ffdec814cd0d25U, 0x1625f308ea531a16U, 0xda0aecabb8261d64U, 0x1445fbbb06dfff07U,
  0xed131d4e1ef33dfdU, 0x4efe203b6d3e171fU, 0x5a180db1140b0e29U, 0x3d161612efe11dfbU,
  0x7fb11206f025d516U, 0xd2f22afaf7cc6943U, 0xc38ffffd36e53fcbU, 0x3e013f212fae0c3eU,
  0xbbeaeefc0bfa2e1dU, 0x2e0fd414d17fcef0U, 0x1aff0316f9f808f8U, 0x3932c9572c00306cU,
  0x49f86b4e11deef4fU, 0xe5fe25f1afd697e8U, 0x9fc382424f82ee1U, 0xf11bec1921283f0cU,
  0x2dfc8cca7cd2f01U, 0x1bd7fef83f5c8ec3U, 0x353f4276eef9fcbU, 0x11db3c41e6fdd70cU,
  0xeafcc0bf1705b301U, 0xf109a5902cd9fce6U, 0xe6cd0d14ed560ddcU, 0xeb2204e4c5fc26fdU,
  0xf5d3e8ed33af2148U, 0x31ee01082cd0d91fU, 0xbc23be3d2c6f305U, 0xe3002c450f0812b4U,
  0x69a0e2f7e0af2624U, 0xe4ea045ce300ba0dU, 0xf1dd0ad0d23a20b0U, 0x10f07fac2317d30fU,
  0xfc2ed638dffa04d8U, 0x1f11d05d5080fdcU, 0x3dd20fff816dcfbU, 0x320a1013fee0dff0U,
  0xefd16e1de938c8efU, 0xe9d189caa0faf80eU, 0xcbbe1fdf27f41d3cU, 0x272c2a1f210f1ce7U,
  0xf0b3124700ed0fe2U, 0xe422d6eaed203c2aU, 0x10092af86f4edb2aU, 0xd4630721140befe5U,
  0x2d09b4f2f3d725c5U, 0x4e24fbe70ffffbb8U, 0xe3f6ac213c062cd8U, 0xcaf3f1c6ceff1ddcU,
  0xd2d0c17b4eb0100U, 0xfbf4b719e215de59U, 0x24da16e726b92e07U, 0x9e705e808c7c67fU,
  0xffd8ef2df52d3820U, 0xe4d6f7ce072f08c1U, 0x13c8ec17e943034cU, 0xecf94c16d0d21c3dU,
  0xb630f600f7eabdc0U, 0xbcfc162cd5dcfae7U, 0xfefac5e427ebceccU, 0xe0dbdaead638d4f7U,
  0xe11f7fb1cfee392U, 0x21cdfd2c0a1833e2U, 0xee0d1e2bf2f78173U, 0x36f537a3d10002bcU,
  0xefe2a1de82b16f2U, 0xf42c331941040720U, 0xf3f8af1b09f012fbU, 0xa8d923382c01ef14U,
  0xcbe9cc1befd91806U, 0xed15cad0f4fa3d20U, 0x2120e5e6ddf0de08U, 0xf51383bdf2e505ddU,
  0x281c5cee208fd49U, 0x2a04ff12030cf300U, 0x301aeffc08bf0adaU, 0x106381e04ecef0eU,
  0xf997ec04270ef8e7U, 0xae2f90811f3e9ecU, 0x12daaee026b0f305U, 0xa5fd48180e0adb0eU,
  0xf9f7b703ce04d7fbU, 0xcc041ef2e30700feU, 0x192ee718d022b7deU, 0xfefecc200d1fd20bU,
  0x151cf1dcecf1f6bfU, 0xeedf141005e2d111U, 0xdef203ca1de6ff14U, 0x35adbf8d311ef0eU,
  0x21304161203a800U, 0xadddff11f05f00bU, 0xe12b2e15e6f6f7f0U, 0xf3fe08f9fabf03e2U,
  0xd71806ff360ae802U, 0xfa15020411f2f8e7U, 0x1e0707ff210329e8U, 0x2c0f0ffde7cf00f4U,
  0x900f1f719181815U, 0xd22421010409ecfeU, 0x20c0c1cc81d0cf8U, 0x18020f3703100dcbU,
  0xf2d52213f6fe0e19U, 0x190c25012af2faeaU, 0x1eee5fe1d2a0e08U, 0x138115f1e9e005cfU,
  0x5cf0fcfd01e30a0bU, 0x330ef402130308fbU, 0xf88100f2eb03e120U, 0x4fcf81d0bfc06U,
  0xfcef09ec0cd03220U, 0xfefd14fc050c251bU, 0x202f1f0e108122dU, 0xb70bf6dbf209df0cU,
  0x72d8413f6f2fff0U, 0xf1fe142709fff8efU, 0x1d3415fef22db2f2U, 0xff08fa0709fbebfeU,
  0x2024290e290107U, 0xfde4fbfee508f21cU, 0x3ced8e40ad331f8U, 0x2255242833f8ebf3U,
  0xeb07d832f41c2fcaU, 0xf935f6d32a09f72cU, 0xd7ce03eef131fd21U, 0x22f83b0345fbfcfdU,
  0x20fb0a1cfa810c11U, 0xfc21efddf4eb03feU, 0x405120de8ef30eeU, 0xdef21c3c12e2f901U,
  0xdaf1f3fff7fc0decU, 0x11d906f6cf13ec0aU, 0x1ef61de7fd44ddf9U, 0xeaea03180906010bU,
  0xb1a3216390bfaf6U, 0xc8e1e70eb31f0614U, 0x12d360e722fc1dffU, 0xfe090de905b71e08U,
  0x18f5fa180510c605U, 0xea0ef1fc1be78106U, 0xd1fc25ed1d08e119U, 0x1b0b27f6ebea23f4U,
  0xe9fc23ff08f11a3bU, 0x9f8141e15e0e3efU, 0xe529f3f5f71016f5U, 0xf90e0ce7e419dce9U,
  0x49eaf503f1070231U, 0xea17f4eeddfdef0bU, 0xfe0411e8df026deaU, 0x191117f6df2d0df8U,
  0xf90a34fb0c13f553U, 0xd8ff0ad625fc10eeU, 0x1703ee4cdb0118faU, 0x1bf61501fff33018U,
  0xfd3f0803ebff1004U, 0xf739140e071ef00eU, 0x49000248ecf31a0fU, 0x28d513ff0d110f04U,
  0x4036213616a1161cU, 0xef2e09ee16d7f7f6U, 0x37eef03e0b0be725U, 0xf8082a3021f0e8d4U,
  0xd8470aee10010f10U, 0xefe72527e6153efeU, 0xf04d1530b2ff103U, 0x33f7e2c9e94f33f2U,
  0x1d07c5ea030ff131U, 0x7ff9f60506e1d524U, 0xdf717170013ecd8U, 0x19dbedddf92ae9dcU,
  0x81b4daeef5f2eaeaU, 0xc300f50ad7e10a18U, 0xf714eb14f5e70eccU, 0xebedbcee0d12ff0eU,
  0xa11e0f218efe01aU, 0x18c0cbcee2fc2ecdU, 0x3a7c2db06f9af43U, 0x15dffb25e517d4fdU,
  0xb6e5051afcd2f80dU, 0x405eff1a412f00eU, 0x10a2dee0f218ed25U, 0xe6ec503206ecf508U,
  0xd70ee4070fed01caU, 0xfc0bb2ff37f9fefaU, 0xd3fb1aeb894b8bceU, 0xf915f038011e3706U,
  0xfe05dc140d14f31eU, 0xe71c2038c7e01118U, 0xfded216fff4b4efU, 0x2b1f220cf9d9f6ebU,
  0xebd7e711e48104ddU, 0x242f01f6f3eb57eeU, 0xdcf5942d01ecf40dU, 0xf733fdeef427e9caU,
  0x1ef340bfe3403018U, 0x208ced78a2a0116U, 0x2fa2f2ebf7e618f8U, 0xcffe92e09e8f749U,
  0xfbecdb18f01611f0U, 0xe7e0fcccf9effddbU, 0x6f23923ef550907U, 0xffcdfd08f4ee1e05U,
  0xf41a10f904190eedU, 0x1210f10ae9040a3fU, 0xcfbff15f7f5f30fU, 0xfdd32f0815daffecU,
  0x411900dd0215ff0cU, 0x160cff03e604e6ecU, 0x7150f3ed3f50715U, 0xf4def509eae2fe04U,
  0xf70aa3fa1ff8e2f6U, 0xefe6de2227edf90fU, 0xe218e8f5df0aedeaU, 0x1f1000cf71e1fecU,
  0xc151cec12f40847U, 0x9041af209fb0513U, 0x2481330519f2150bU, 0xfdfd00320803def6U,
  0xfc105d4e0b0ee91cU, 0x1305ef0302f500e9U, 0x3e00be419291103U, 0xbbe33615e1f2e803U,
  0xf8e8ede6f2fbe213U, 0xd912172a4214dcccU, 0x33211eaf41029dbU, 0x20e0aa221ba6ed0bU,
  0x1fad92310e71cdcU, 0xdf10fe00e8f6d91dU, 0xee29c9d1fa2a30caU, 0xd10317d10d1a0a0fU,
  0x2bf61ff9e9ed0115U, 0x311cef3d6f7f3d1U, 0x1eb5bb1c73811613U, 0xdbfaddc8f302eddaU,
  0x80afae1be12d801U, 0x18d1001a22cae8f3U, 0xd30166210f6b90aU, 0xd8abbb8ee300f3f7U,
  0x3fc0b7f0a1d10faU, 0xd0704c8eaf43638U, 0x29f8bb22eff1f652U, 0x27e1aceca1b91345U,
  0x161c296330fec629U, 0xc7643a3f3de508f4U, 0xb08e1529ff060d07U, 0x722fc3f19061b19U,
  0xec10e637cff44f25U, 0xeb16de3207230bb6U, 0x11020efba1ee200aU, 0xfafafe48c84d1fdcU,
  0xd809d2e815e11dd5U, 0xe031ea2ef519f0cdU, 0xe6f9efe81b12fdd3U, 0x2c0ffb0110f8fd2cU,
  0xe527252050010730U, 0x14e2eef20500cadcU, 0xc6fc09e4fce91eceU, 0xf61715f22e0318c8U,
  0xf10f161bc5e259aaU, 0xac9c4811907162eU, 0xf015ee1724ea0d22U, 0xfb132235d41bd40bU,
  0xe7e9cd24d90ed1eeU, 0x2912edf42312f219U, 0xb1f2e6f35df8f921U, 0xf70506ddcbef33efU,
  0xeb1e0ddbd5092ddcU, 0x48dc05db0acb0cc8U, 0x107d9d410ed9f30U, 0xeb0528a52fe3160fU,
  0xe1ebeed759132ccfU, 0x14ec2ef11ed6f5U, 0xe4f2da08f32211dcU, 0x7f93404fe012cf5U,
  0xf80f1e5848f0ee34U, 0x15ec38dfebe907e5U, 0xdbe90c1293c5f8feU, 0xfd5100f1d6e87f18U,
  0x2394e5f11a17e5f5U, 0xf3e7155a0204fe0dU, 0x2b032d1237171827U, 0x20af9b02d47feb7U,
  0xb5d2002858fa10caU, 0xf71c12fcefdc0623U, 0x2022dae5020236d2U, 0x19e1ebf903151ce9U,
  0x31d29e205dde225U, 0x1e25280af21d0cffU, 0x2701f20e10071ce3U, 0xee1a1a090cf621c8U,
  0xe0f4ed4319f6e4f9U, 0x18f6320bf1d2fcbcU, 0xefffeffffd8041fU, 0xefec05eedae7e8deU,
  0x618bbf1daeb7fe4U, 0xdfc21d7451afa1aU, 0xf4e1f7f7ee05de02U, 0xbec0b27c7e41c0cU,
  0x3acc0e0c1b341de6U, 0x7f08d0d0f3000a2bU, 0xe9cfeabcf4fef10eU, 0xf6eb27e92a1bc905U,
  0xc6f1e8033beffed5U, 0xf53edf18181cdde6U, 0xef0cf0edd716fcd7U, 0xbf5b7c211e7d6f3U,
  0x3b02c7031cf11561U, 0xf20ef4b8f0f8fe17U, 0xfe10e935c3111214U, 0xfc5d2af00dea08ebU,
  0xec5f71f1b090ae4U, 0xeecedab7f2fc060dU, 0x4cc798f415190f00U, 0x9f8ec1b280db1f0U,
  0xa16ff37a191cf0e0U, 0xd1a0e00dcce0ff9U, 0xddbaf00277be19fcU, 0xf0d32834ef05afc8U,
  0xf151e0a1cfb29a0U, 0xebc05904100b5bebU, 0xf10e31192b033517U, 0x4df59ec3e12007fdU,
  0x3845fe080427f22dU, 0xf3af80d81ffc8d1U, 0x501e30a1b0066fcU, 0xf5fb2905ce18d3e7U,
  0x15256333d6ea203dU, 0xfff803dcedeeeeeaU, 0x35f2aac2ec212543U, 0x19b10202d830c315U,
  0x80bfd030c0ad8feU, 0xafa03ffe808040fU, 0x15ee030e010b06f5U, 0xfce809f3f2fdd306U,
  0x91b2122e60ae5d5U, 0x31717e52103d800U, 0xf20cdb02ec35e4fcU, 0xdbe2ccdef6041939U,
  0xf802050c03c3fbd4U, 0x2937190701e8f901U, 0xf0cbf50207f8fd08U, 0xe51010f415fb1308U,
  0xe7e707f63cf10c12U, 0xff7f3648d700f40cU, 0x2bf8e80442cee907U, 0xf8fdebc6171a0b06U,
  0x240d13f4aef21d01U, 0x11060bf103eb14f2U, 0xe3f70ef6fdf9ccf0U, 0xd506df9b0ef3d8faU,
  0xc2fc81a6ea0031e1U, 0x21f712f414ecee1bU, 0xe9fbf2fff9f2de37U, 0xf0d5041ce41a0cffU,
  0xfc11042fe0e6e907U, 0xff0b0e0c03160456U, 0x605fe29ab03f70bU, 0xfa0714d022e7df2cU,
  0xf2cc1d1c252f2916U, 0x16f2452809e7fbf8U, 0xf601fb0ef8040823U, 0xf60906e514edfcedU,
  0xeef81202fc1a1f14U, 0xff20ef14e2162909U, 0xeef1f935041eb9dbU, 0x525df4027fa2201U,
  0x1b08c9e7f40ef502U, 0x214ef233a181efeU, 0xff1416cd02f9fd31U, 0x3270aeade3304b8U,
  0xd0a2981fe031ffbU, 0x36ebc9de8affee14U, 0x10d210d4d8072ee9U, 0xf2ea20e90f0b23f8U,
  0x840ea03160419d9U, 0xfd100cf303f0d7cdU, 0xce09d934fa40e7fdU, 0xe0d50420fc1b3c2aU,
  0x2cf0fcf0ff0be500U, 0xf21507e2fa0719U, 0x11b1e5f905ae07f7U, 0xe908b113d241ecf4U,
  0xfee2eff709f0deU, 0xf7bb04df1b01ede6U, 0xee05e80a100bfa2fU, 0x16f6c6c3201905c9U,
  0xfedd78d7f554f5f8U, 0x2dd20c36baffdc21U, 0xe0f9ebd2f9b8cefaU, 0xcb0a1af83bc6ea0dU,
  0xee10f22001f72bd4U, 0xcf04051c0d072a00U, 0xed4f81fad2140de6U, 0xea42cb12edd1f623U,
  0x1e0632d7c7fe0b01U, 0x230c0adcdc1c14d3U, 0x79ba9fdd2170400U, 0x1513e311410f0e13U,
  0xfc4812edf04cd510U, 0x6ed340216ecf1f3U, 0xfa031821c00c827fU, 0xe9e9f3e9f91110fbU,
  0x1111bf06ffd5e80dU, 0xf8fc16012fff0e04U, 0xa3cb4f1fb39b914U, 0x8f0521410f162809U,
  0xc0ae6251ec9092dU, 0xf903f814d9140321U, 0x15ebebefea0ae8fdU, 0xcf068a012dd7c808U,
  0xf3341b7f1cff1bffU, 0xe62810d2c4ed1dc8U, 0x2dcca9eac44a22fbU, 0xe7c105c0b91fcffcU,
  0xef15faead43cb417U, 0xe8351539eee41cf4U, 0x37ec1e3701f4a0U, 0x989e02ff3182e73U,
  0xd5efe239fbeedf23U, 0x5f719111fe505d6U, 0x1e0615ee1cec4a22U, 0xd2f903ebfef8d00dU,
  0xf706060bdbfa2ae1U, 0xfca6382ebc00200bU, 0x12c901103df8df28U, 0x931fe3d402e708caU,
  0xb72503e3f3f1f8f0U, 0xfa2016f7e2100511U, 0x2221ca05e6dd14a2U, 0xe504b20707f20312U,
  0x8061efd01f4a2fbU, 0xf014e6dd0efafaf0U, 0xa18f309eeebbbe4U, 0xe03050bfceb0707U,
  0xf10f19ee31e90d09U, 0xc070008f30a08e2U, 0x17ddddf4f9100914U, 0xb419081206fa06faU,
  0x12f7f9d0fd9af410U, 0x1117f80f08f7001bU, 0x1efe0b0d1ffb81fbU, 0xc310beead2c619edU,
  0xe812100838df3afcU, 0xf5fa0a4b9da709ebU, 0xb82506232f15f104U, 0x58f3bec3f5182d8eU,
  0xdcf10052052e381cU, 0x32f8042cde1359f4U, 0xa5e01905122d2a97U, 0x20b30e42e1a9be5U,
  0x10f2c1b7b708c7f3U, 0x14dfd1cffd13d5caU, 0xf4eff517ff0e1bd3U, 0xfd2d03e6c1f9d9e5U,
  0xcc381b640d3520c8U, 0x1681f4d4eefb30f3U, 0xbf11e928daf5fce9U, 0xfcf829f50b4bff01U,
  0xea56e28108fdd8e0U, 0x52e99530ddd2b63cU, 0xa6f600dd2fd257fbU, 0xe8d70bd01fc823cdU,
  0x549efc0b04f2d6f2U, 0x4df501ea1b2a13a5U, 0xa204c612f418fb29U, 0x28073b14df960b12U,
  0x1de9fd041e03dce2U, 0xceecedc11dea13efU, 0xf5fbf047a6fdebeeU, 0xfa02c8f30b062aefU,
  0xedffd54b2f20e411U, 0x2620281b0ea0cf25U, 0xd12dd8cc04c805e6U, 0xee13e6f10243dbd0U,
  0xf65c4ccecce9fae4U, 0x58d5f3da153f00ebU, 0x162b073de2fc33f4U, 0xf5d9dbab08042846U,
  0xcab15a1ade5d100dU, 0x1afb76d41ccf0112U, 0x223cf536e2221481U, 0x3ed388fbc5a2724cU,
  0xf911d6e1fad1fa34U, 0xcc2dbc0739074cebU, 0xb73d2a0019fdbaf9U, 0x1b00b46aff089e32U,
  0x27ef4309a2d7fcffU, 0x16d3b117e6c3b125U, 0x2b49d6c703da1cdcU, 0xea0bda05f6eaf2fcU,
  0xf2170adfeacbe1c1U, 0x35180a2b0dd51b12U, 0x1225b2fe1fe7fc02U, 0x3c03dbea1af2d55dU,
  0xbb094d500ffa02f6U, 0x2211ebd10f0da8eeU, 0x35f0d25ae95b20ecU, 0x27d8e720061d1af6U,
  0xec0739051609f3e4U, 0xcc1b7150802330dU, 0xfb0a05f4aaf2330fU, 0x25f7027fd2270e0aU,
  0xedbaec4bbeee18f8U, 0xf9fadd0a0a21feaeU, 0x2a3be536fa20f9f7U, 0xeb211027b9cb20cfU,
  0x1607e91534e3dce9U, 0xfad5f2ef0e0606dfU, 0xc4f5233c32f11c07U, 0xdfe3124dcbefefe7U,
  0x1107bc28ef0116b4U, 0x201e30b081b00d5U, 0xcc37120a261f19f8U, 0x29f2d681d6dd1b0dU,
  0x1efa3ff027f02febU, 0x84ee60801eefa3fU, 0xfde4f800300821e7U, 0xfee65ec9ed160425U,
  0xed07f803f409f20cU, 0x995ec7f3fbe70909U, 0xfa3ef5e410941b04U, 0x1bf325fb1a2e0fe2U,
  0xee4823f406fcf6eaU, 0xc10af2e3231c2d51U, 0x15eb2a07e6d72a23U, 0xbae10a27e927cb09U,
  0xfae403ee58093a01U, 0x22e9efc12f030effU, 0x2e20031ad4f25409U, 0x5ce7dbdf22f9e409U,
  0xf7ef4533e2ddfbe9U, 0xea0e2fd508f228efU, 0x78128f2f61d16f8U, 0x15dafa1d0c2403fbU,
  0xff0fef60827f81eU, 0xda2bdffd4316f41cU, 0x2748f4a0e6f74135U, 0x24254cecf82325fcU,
  0xcb1b34f1feb2d3ccU, 0xebd3fe1cc0bbd84eU, 0x26e30f038fe3d716U, 0xec07f64352fcd0f0U,
  0xef1f3e252eeea720U, 0x114134643e521e4U, 0x7d0f0a622619e849U, 0xf8d5f38128ee0709U,
  0x2220fd1411ecf934U, 0x2e0a163de8191dd5U, 0xc505f8e517b947e2U, 0x2bf11218e5210428U,
  0xcc0a1710edfb205fU, 0x17eddffe3be7171eU, 0x64d4f84611fee7f8U, 0xf301d1e1b93ccc3cU,
  0xe4c1ef07f80618f9U, 0xfe06da0b141c1c2dU, 0x3f49f8ea1e3b4581U, 0x22071015b62b0423U,
  0xf8ed3cebeffdce07U, 0xdd152e00ea2f020eU, 0x24feff24fccbf5d3U, 0x14eddce6faf10e21U,
  0x1303091c550f0ef7U, 0xd722e5ecd302fc8aU, 0xde4d5d72c122d01U, 0xea07adf417edf4caU,
  0xf2e00e9bdc7f9f8U, 0x30522030c2bd7e6U, 0x916dd16fffec318U, 0xe211d40b94e61d01U,
  0xfc51e5e4e2f332f1U, 0x4ce304dd1aff142cU, 0xedff0ee92eebfd24U, 0xbe09fe8131f9f842U,
  0x13d93c3ef6122ae4U, 0xe00eef0d3ecec2aU, 0x2107d956f114f5f2U, 0x2ce70800edea2245U,
  0xdd4c3c3b12e6b507U, 0x123b155a06e80aeeU, 0x716261acde002feU, 0x1525e737030e0effU,
  0xfdd10fc82407fd1fU, 0xf274f5814e6f9f7U, 0x5be7f716f7fb160dU, 0xf803ecd6ecf3fef2U,
  0xe5e9dd3d09ebea45U, 0xe5dd0911ff1e0b5eU, 0xb0be2e7231fffdaU, 0x24d3369805bbe202U,
  0xd3cd4290de11323U, 0xf71be0ef24dc47c3U, 0xc1f0bcf7cdf1fdbbU, 0x9ae315f6e1eada18U,
  0x14f1bdfb10f9c108U, 0xdeffa03ebeafc0cU, 0x29091c11f3117fabU, 0x62f19e3ef4e1dd9U,
  0xd515cae5d821f3f1U, 0x9ce1ae4f9eddc31U, 0xf905132df4d0d907U, 0x173d05e2996ad2caU,
  0xd63acd05fce4dfeaU, 0xf2df04fc36f71008U, 0x22063e290f01fe0eU, 0xf217d4bbf62c1df2U,
  0x17fee8e9cbd936b7U, 0x12fdebf1fd0d18f7U, 0xfdc1441e0f60b03U, 0xbe4c610ea04f628U,
  0xf9fd291c3e08e3f2U, 0xe00ff93ae0cffd00U, 0xd41a27ee16e4fcefU, 0x64e5e706051604f8U,
  0xfa0de6e8ed06f10cU, 0xfe267f270bfb021cU, 0xe5000cf00ffd13feU, 0x12ef2025f1060af9U,
  0x44c0201aa1abfe7U, 0xe6f71011e412f818U, 0xfad5deaa01ee39fdU, 0xba3cef1ac50a5267U,
  0xdbe4113b3f0313d9U, 0x31904fa2113b5f1U, 0xffcad9ed0e251806U, 0xe8f602123cfcf1dcU,
  0x19ef2d37d41c14b7U, 0xfdcf25f4ff1acee6U, 0x1444ff47e7d14b09U, 0xfc0faae51ef1db10U,
  0xf81081829ef201aU, 0xcd183a45f90dcb09U, 0xe028dceaf0f2f71bU, 0x2f0f22a4feaaf217U,
  0x3cfb0ee410eb07f3U, 0x16f607064f1712f7U, 0x50257d510e6f0efU, 0xf50de7f61ff21102U,
  0x28d11f02e41f1cbaU, 0x1e6f8e804fe050cU, 0xe6f0eb1bf2071ef4U, 0x681d4ec110f2dU,
  0xecfec00ffaed0de3U, 0x1adef51307041af8U, 0xfe3eef08e0e8c702U, 0x4e18dc14f9eef217U,
  0xffdfbfbf62ff4e1U, 0x1fedec18d7f001eeU, 0xccdb001f9f7e806U, 0x31302810e2eff71cU,
  0xfb1808201b2211eeU, 0x5ebddf4f4e915U, 0xf7eb05f9f90cf9f4U, 0xda0c1320f3f6ebf6U,
  0xeffd08ec13f80ad7U, 0xff13f90504f800edU, 0x5191707ed0af8dcU, 0x2deeb9daf7cf0cf2U,
  0x509d013f31b0918U, 0x131df109e9fd03f5U, 0x51b09f9f02822fdU, 0xeea151feaf1ed1bU,
  0x12e520f8f5fb1c32U, 0xe001bce2fd5ed00U, 0x2ae581f825fafdefU, 0xf2ce09fa0008eff6U,
  0xf1f61a23da02c817U, 0xc7e1e11bcbb0d5d7U, 0xd3b708fb2a0cb53fU, 0x18cefd08ec1246f0U,
  0xeb26d2b8e6df403fU, 0x32c911f3e4f7e227U, 0xc7f5181dbe073329U, 0x706dd09da0b0f2aU,
  0xa391362100ff625U, 0xe21502f010c9aa7fU, 0x142a3c241bd805dcU, 0xc9f4ebb4163402ffU,
  0xdc14211e11364ff7U, 0xe70a001b0cf90cf4U, 0xcb100acef4f32dd1U, 0xefef24234be7f1e9U,
  0xece6fa17eefce12aU, 0xffd206041917f70cU, 0x29f8ecf43e0d15e8U, 0xed03492a14e3f301U,
  0x33fc2d34e3dedbf3U, 0x1702101c0fe922ebU, 0x20bf8d0ecd2faecU, 0xe30f1f07341ce02eU,
  0xff0bcdef12dce714U, 0x1cf10feabee117e3U, 0x202ff6190f09f0eeU, 0xdd031de9fb12c103U,
  0xb05e6c4dcf712f1U, 0xe7f50a25e6e5a508U, 0x2812a0a2cb1fc26U, 0xdb25e9f4c350f9faU,
  0xfd7dfc7f7fe4be2U, 0xcf10de77fff14aaU, 0xf5e3590ff535f6e2U, 0x160dfad2b92ef1ddU,
  0xc96dff10d01e2f18U, 0x10b9325e03d4dd08U, 0xf03202e1add7df10U, 0x46025eff6ae707d5U,
  0xbe24bdd14f5f046U, 0xfe14f2dafe04fd04U, 0xf0c7f2ddf123bc00U, 0x6222fdf602ece8e0U,
  0xf10be2eaf142d9f4U, 0x13fbf40ceff4d1e7U, 0xeade2cff5026e204U, 0x57281d211cea37eeU,
  0xf7d1e7e616eafb19U, 0xa81aeb091fe80227U, 0x26bb230bd4ec1059U, 0x17f1b8fde42a11f2U,
  0xff0f0bfc1ef53defU, 0x209dbfa0c041cf5U, 0x815f239cc0b7f0bU, 0xfdf402bfdc1ded05U,
  0xd706ef39331908ffU, 0xf4fa241715fdfffdU, 0x11cc6e0e1fc4a504U, 0x21150cee14f91febU,
  0xf41303e4052ef106U, 0x12f1d109dcfbeb2fU, 0xee13dafaf2054f00U, 0x19194e0935ebfaf2U,
  0x1128ff4713e5e30bU, 0xeae2f4c5c207136dU, 0xbbdc0634e61e22eaU, 0xa803f106ed32bff2U,
  0xfd021c128739f1feU, 0x1d05173cfd1bbeceU, 0xba1b2801ef235e43U, 0x22f91eb619d84450U,
  0x1ae52516f7d4030fU, 0xd47fd6c9264ed5bdU, 0x3701fb89e7b90d03U, 0xdb1d292df9b888ecU,
  0xe2170418b9d42b03U, 0x87fd2bf8342724ceU, 0x2bf0f701e3e3ee5eU, 0xbf808f2ef1a5838U,
  0xf41414d61907e5d8U, 0xf5fb10dcd20a9421U, 0xff0f11fd80f15faU, 0xfde514ecd5062fe7U,
  0xddd569542552daffU, 0x2dfe10fff0edb8e1U, 0xee12efdf220aecfdU, 0xbe0f7e133fbfcecU,
  0xe60c247f1cb7d9e7U, 0xa3f648085edb04f3U, 0xf2c803ff22f9c1f2U, 0x101f20709ffce1cU,
  0xfcfecd338d1021e4U, 0xfcee0248fff0ec1aU, 0xf60d0cbdffdee1d2U, 0xf00200e3f1e7bd0dU,
  0xb1513ff21334990cU, 0xbf7e615ce0fe304U, 0x475afa0c2e3004f6U, 0xe4df4d97b69adc0dU,
  0x41042fee013e8e5U, 0xef1af903f8040435U, 0x2009a7cc1ed0e28fU, 0xb00f2de209aa150cU,
  0xfb07e620efb326f2U, 0xf611febd2df92dd2U, 0xf3eedb4b45fa65e9U, 0xac3bd421bc7fadcaU,
  0xd1ea59de9de50e5aU, 0xf601d945341ec8eeU, 0x1ca51b0a3adae8d9U, 0x1f10ec2bd06c4e7U,
  0x2b4414f3ef0617caU, 0x10b0603e019ee02U, 0xc2018923e7fbf9f7U, 0xa42706e5fd13eff2U,
  0xf3e10a4a3404eeU, 0x1820f6f60ed612faU, 0x2513f3ff0541cb2dU, 0x34fe33f0daea3e09U,
  0xe1eb7f03002804c4U, 0x3027021c18f0e5f4U, 0xc7e1d5220ebd2129U, 0xdd374efc00f5eff7U,
  0x21fbfe26fff81b31U, 0x4b35090d0ced15e8U, 0x390413171cfaffaeU, 0xed8ecbdb22ff9d10U,
  0x19cc331df434e622U, 0xe5e2fcccdd0f1afeU, 0x6e4107ee142554f4U, 0x45e6260cfacb4688U,
  0x22bded60242248f0U, 0x4b36dee239fd10e5U, 0xe00dd709064a4dadU, 0xfc73e0caf4d1ae23U,
  0x1f127ff20347f0U, 0xea1c76ea02e932ecU, 0xeeeddf34112113c7U, 0xdc3b9d0fd3f2c333U,
  0xa6523b6c01e5cefU, 0xecf410d8ed00e0f7U, 0xd1e21e2954f9d09fU, 0xe95116fab429f314U,
  0xd1eed703970cfdf0U, 0xd320008b0e9bbb8U, 0xebe6892efbf5f3a8U, 0x4110a4416e0410cU,
  0x49d2afeaa905c6dfU, 0x2d1ff810fb91f69cU, 0xd8010c00173481edU, 0xdeedec400406dbd9U,
  0x3e6f1281e07f809U, 0xda1e41c6e5eb510fU, 0x2fd9c05c2608083bU, 0xb420ebc658dceb50U,
  0x34e428e40ac54703U, 0x15151e14ebb9ead8U, 0x184209073492a3faU, 0x93e893360a0c00eeU,
  0x1ba20de30ef1110aU, 0xef902f8f419fb15U, 0xfb0bf213fb0b06b0U, 0x537ed1fef164381U,
  0x171ae3d6ac0c04dcU, 0x1cf22b1512d458deU, 0x932d24fdf8a5030cU, 0xf051f3ed11ec03fbU,
  0xfbf0f7ef2124371bU, 0xf71609fb311ee3ffU, 0xf5d9110ccc01cf2bU, 0xebd5ddfeeaf2e021U,
  0xfa0d0feb01ed270dU, 0x102413e503fff9d8U, 0xfb05200df1d1dcc7U, 0xd8230525e31ee71cU,
  0x36b2d1d9fbfc3640U, 0x3f10f41f09c61a0fU, 0x8c2f8cbbefb0c17U, 0x43ea162341d4fb3fU,
  0xebd529331ae015d5U, 0x1106a7ec29e934feU, 0x3904b0f11325e2d2U, 0xd1f37f0d0c1c25c8U,
  0xf628d10022d114faU, 0x4810de0f5433ce1U, 0xdfd2043013080016U, 0xc131e027072c443bU,
  0x4f6f12b06f21ce2U, 0xfc3c8f4c60a9536U, 0xdefa0623d23f00d9U, 0xda61fc0afcfce5f0U,
  0xe41617b6ede91319U, 0xe302070bf02cef0bU, 0x20e2fe0241990a1eU, 0x33340fd7e4e12aU,
  0x3b6000c7f0c09e4U, 0xbd03f2a915e024dfU, 0x320bbb27efd10ddfU, 0xfe050e24f7bc1d01U,
  0x115de9fe0efff30fU, 0xf3f101280efa24ecU, 0xeffe4f2a11fb02f3U, 0xf4dc96d0ff5c0502U,
  0xdebfbd980cf4df27U, 0x33fcad55e2d5df3eU, 0x182413a8eaee23feU, 0xe61a18ea10d219d7U,
  0xfcd4081bb3a26f1U, 0xecf8ebdc130af3f5U, 0x111c09302036c611U, 0xf90806e3fc396af6U,
  0x127b2ee621471bf5U, 0x3d09003d23260c0cU, 0xffed03104e0d0f69U, 0x8ce3fee6da2b20daU,
  0xf01010f3d6b7ecadU, 0xe1d6e4404f010621U, 0xc2ffea9beabcf215U, 0x430f0921e6e508f1U,
  0xf1e4aa30250a0188U, 0xf0f175f126fe4f1aU, 0xf09009333afb12c7U, 0x35e0ffc6efdff512U,
  0x2009099beafe2831U, 0xe30af002df0dd50bU, 0xf3f8ce1008811c24U, 0xf7ddda35c921050fU,
  0xf999282008f20b83U, 0xffe3d1f913f21c2fU, 0xfc0fdd1135eb1eeeU, 0xdff31dade7501d1bU,
  0x130822291deff0e7U, 0x1307142a36e007d2U, 0xe6cc04172ec5bedcU, 0xfb1faeece83df20dU,
  0x15ed1d050300e7b2U, 0xd3000d0ffcdefb1eU, 0xe363cb26dfce2304U, 0xe9251ee10a14dcf9U,
  0xfaeef9d4ec15e5efU, 0xe5fc21f238f1f6deU, 0xf8750d21e1e6f7deU, 0x2e807db16982e0cU,
  0xf8d329efd524f92fU, 0xfde0f3091200b3faU, 0x1121eff7dff20be5U, 0xf9f80fb4f8c5eabfU,
  0xf3c6d11b11eff917U, 0x2d0a39de25e516d5U, 0xbd01424111f381aU, 0x18041ee4ffef0b07U,
  0xb0f7f96f70e0558U, 0x5170b033c02080fU, 0x3518dd030427ffabU, 0x4d60cebc0f223d7U,
  0x2fd305eb03fa2b33U, 0xf103f70bdd19f70bU, 0x99fb8e6000c0af7U, 0xf1e30c081a190423U,
  0x516140cfa1a0503U, 0x1ddedae41cdb0f27U, 0x2cedffffd004e4f4U, 0xc8ec1e1f00e8f533U,
  0xe1030ff118fbd4edU, 0x9dc081110e91210U, 0xfa11dd0428f5cf24U, 0xd31318f12a0abf11U,
  0xe6fc2c2404e0fce7U, 0x2adc051081dbf422U, 0x150e03e00ceef5bdU, 0xcd4aba0705e7d80cU,
  0xe41b311609f9c008U, 0x810627eda6cc0ff3U, 0x1e08bc092029ec0cU, 0xbbe3f4e2bff700c3U,
  0xbf2dbddd240e1d25U, 0xe2013f9ff0ff1f3U, 0xac1315ece5e2db0fU, 0x12fadc13c9e70547U,
  0xee123357ec120ab7U, 0x1c251b0a1eca0b29U, 0xeb061fe9ae9e4905U, 0xd1d4dfe205f0fd2eU,
  0x23b2fc1bf80d23f5U, 0x5f1d4110d110a3aU, 0x215d34337e81c20U, 0xc41a0c13c9f003eeU,
  0xed22eae60cf9fbceU, 0xdffcff1e1d0edb21U, 0xd21d24197fee341cU, 0x14e81509dc0f0c06U,
  0x5f4390af110349dU, 0xcf62dfc18f527f2U, 0x1b141b01cbee64d1U, 0xf5f4d0d027ebf8d2U,
  0x2912f61d1bff070bU, 0x27da15041cfde3d5U, 0x47ea2ff60ceefbf5U, 0x3ffc19b9ea0209f9U,
  0xf1fdddc0f041e811U, 0xd1ada1c3523030fU, 0xf938ebe8ba10501cU, 0x3f0a381cc0e6fde1U,
  0x921a1422180601c7U, 0xc507fb353603f717U, 0x8557911ee0a3211U, 0xcf5f018bd0505ffU,
  0xdbe312fbd2e9fde5U, 0x23ecf52d08ee22e2U, 0xe1eee1acb021bddU, 0x5928aae1f8eaf5ddU,
  0xf10c7f102d040c4cU, 0x23317fc1c0807f0U, 0xcbf30d9ec251013U, 0x410df8ec0a17e0f9U,
  0x102412c7ecda2236U, 0x281807096b0100f8U, 0x1033e710de1cf122U, 0x29a742f4d2fa2f07U,
  0x1f045410251d0f11U, 0xe424f80ffae51b36U, 0x4109d56f291401f9U, 0x584e49ecea17f8daU,
  0xae15323b5c361925U, 0x1a04d7f7ffd419d6U, 0x1fed123eed22d94bU, 0xec7f2a0b0324a3ceU,
  0xe01111d112d040aU, 0xc1a12ec8562e4c00U, 0xeff6fb37d3d71d36U, 0xf52f0d28051d0e3bU,
  0xecbaf23ed819e28fU, 0xfaeebeae34e7e7f6U, 0xf404f90bd40a06e4U, 0xe0cebc5f45bcf5eU,
  0xfd2e10fbfefc15fcU, 0x4598e4fae39007b5U, 0xe54d1d9d24dc45e4U, 0xfde321d330f624d0U,
  0x13da412621024dbfU, 0x7f32a104a01315eaU, 0xa5eedce244e707d8U, 0xddda52f62c2a643dU,
  0x95d3b709d2eec030U, 0x5ddc51509fee51aU, 0xd11cdffde820e4d9U, 0x2416dd00e5c7cbe5U,
  0xcedbac3bfa4dfcd2U, 0x1cc3532fdf17edecU, 0x1fe648ca10d7f207U, 0x30281fc68e09c6e1U,
  0x7cfdef5e3152538U, 0xe31e3d27cc34d111U, 0x470cf8dc19abe6ceU, 0x1f1bf4e6f30be616U,
  0xf5ce2f23d90dffabU, 0xc9e9e625dd01cea4U, 0x661da3ad4c0dd74eU, 0xdd471b9f814504eaU,
  0x53a9c09d7bc08c6U, 0xcbfaef34ffb18ddeU, 0x2ac7cdff2b01fd09U, 0xe1f2ccdcf5430ee7U,
  0xca150311d909abf5U, 0x2a0d5726ef0b400fU, 0xc40a1d3c2aca0daeU, 0xdcda8fd1c1ead805U,
  0xa8f1d4d7d01ff4afU, 0xfcfeff19cff8fff4U, 0x203cd8f909d917e4U, 0x28f68103dddc2cf5U,
  0xf3e9e2280dede1f3U, 0xfe3bcf1e40329eeU, 0xe81bf0210af9c207U, 0x180f0de2bdd20efaU,
  0xf61343160c25fee6U, 0x19eafc0516ee1305U, 0xc700fe10d1011bU, 0xd5fa07e214060215U,
  0xf3ffe90d1fb5fbe4U, 0xfa1b190007040528U, 0xf948df0ddd1ecad5U, 0xbb02d7070b0bfe10U,
  0xdef302fbfff1e2dcU, 0x2bc3a806ed3fe50aU, 0xbd4cbf6e5dffae9U, 0xb1b1df901fc0f00U,
  0x8dd506f1c14f8f1U, 0x2d0be6dd03e217d2U, 0xf831d6082019fee3U, 0xefdb1df92dea2bfaU,
  0xedfe3c03eaf12109U, 0xdd31fc10d005b609U, 0xfd81f402f103ddb5U, 0xd206ed2cc622b7f0U,
  0xe9ffc92c021004d0U, 0x22f70c2ffeedfcf9U, 0x9432ce616dddde8U, 0xe216f0f6bf3eefe3U,
  0xef26c5cfeef220fdU, 0x4bb80423d8efff1dU, 0xbbfcd0ae0de72efeU, 0xddde0bdb13e2d30aU,
  0xbee80dffcc0bfad5U, 0x7ab8639eeef29c8U, 0xf90426e40d1815edU, 0x16dc55b1cbd02332U,
  0x3001f3bc13e4ea22U, 0xfe19b9080f4702f4U, 0x1612d7c7e21c0fecU, 0xe4e7f32702e4c1e8U,
  0xf28cd21fbcbf700U, 0xfd077802c80cb0dfU, 0x20e1078103fce92dU, 0xda02e1f8b4f7f3e3U,
  0xefe6fad1ff122721U, 0x13f30402f7020b0cU, 0x529e706060210e4U, 0xf81c0fef00eaee08U,
  0x5fe020ffa29f34aU, 0xcf41f0d17f7f80eU, 0xf71115f9deb3fad4U, 0xdd151aeafb0d07U,
  0x16eda7fc06dcf3f2U, 0x19d1d4f70afc06efU, 0x235051813f1f002U, 0x1fe020e07f4060aU,
  0x5fef1e3edf1f6f2U, 0x2ae8f3ea0cf90602U, 0x1381f1230513ed0dU, 0xfd1aed0cedff0701U,
  0x4ce440acf7fdc743U, 0x3e908d52212fbd4U, 0xe9f2e92f13e3270eU, 0x8bf0e1d9fb2dce0fU,
  0xe20605f1ff441118U, 0x8f203017fe827dbU, 0x910fbf0080e08eeU, 0xc009edff00d6e26aU,
  0xfdcc98e7f302f6b2U, 0x3d1afcc5190ee4cbU, 0xe7f7090bc6f2d9faU, 0xe00b110ed816d1e2U,
  0x16f704f4e915f90aU, 0x272c0202c1030c0aU, 0x2db9d80d108eeb0dU, 0x82415d63e5404c1U,
  0xf4f5e867e4010eeeU, 0xf1b7ef091ed3cb3dU, 0xe6262a03f635d9b6U, 0x28f233ed1bccf8f9U,
  0x4b5b51df6d40a09U, 0xe12029910f6c6dfU, 0xfbfcc644fab11548U, 0xe1fabd1beb1a03f7U,
  0x9fccb1a0db4f7f6U, 0xfe40bd981df1313U, 0x35c30ce0f80e10e9U, 0x338ecc8e0f050fcU,
  0xc01d4e8dc12fcf5U, 0xc305ff011612d3f9U, 0xadee07f8fc0cbe40U, 0x1571c1ad0da5a17U,
  0x17fef80421f70715U, 0xfe18fee25cfee723U, 0xf520362be8132215U, 0xe1506dd0c0717f7U,
  0xf2f1d006ca1e2616U, 0xabf534f6ff35d226U, 0x1dde1cf8fffdfe2eU, 0xf9e5111cff0af6ebU,
  0xf5030e177fece203U, 0x2e823e912f413dbU, 0xcd1516fc471c021eU, 0x2b15e8a11fd736aeU,
  0xed1308fcd418f91aU, 0xefff0d153f160f19U, 0xf9cfd10dd8e82b00U, 0x482705d112ca08efU,
  0xd3cfece5f5daee03U, 0xca320f0bc7d9080bU, 0x945f0223900c9f8U, 0x901c7b025ee7f10U,
  0x10021f1434efe961U, 0xf2e8c02ef215d8fcU, 0x1b1222e825ec0cd7U, 0xb20145fada0addf9U,
  0x1ce6e9c11018f5d7U, 0xfa252d55bfe9decbU, 0x7e8fd0509d96cb9U, 0xe6f0d6e81206e6eaU,
  0xf3194cf4efdff636U, 0xbed53e80bf013d3U, 0xc9192a690ffce4a6U, 0xddec02eceb5914d9U,
  0x100823fbe6f91228U, 0xc01e2240fdbfe14U, 0x14d2e7f22f01f417U, 0x20d0218cdf72606U,
  0xf4e5e903cc0c10f0U, 0xf2200af80316e91cU, 0xfed4f4190cedfd09U, 0xdcf6e309063ce50dU,
  0xd36c90f30f4d716U, 0xee9f1af20b09fb01U, 0xd3240b331bef0cf2U, 0x1a059bc6f81f08f8U,
  0xf5fa2553f9fcfbe3U, 0x4f3cf10df14130dU, 0xb8fee119db0f07eeU, 0x3050ff21cf081dcU,
  0xd75506050111ffdeU, 0xf206fbf91004e5d5U, 0xaf81940f6e2f21cU, 0x2f3d3ddf3d919f9U,
  0xf29e3011eb31215U, 0xf82be500f00203d5U, 0xfef9f5f217310fe8U, 0x3a11f2f1fee200e9U,
  0xfaf829f7ff2b2afcU, 0xf722f42711001efcU, 0xe5e9f63df2082309U, 0x22fb01210b13ee08U,
  0x7dcf1220309f52bU, 0x260d0ebb18e9d1faU, 0xf53a08fc1cf30213U, 0x58105dd131704cdU,
  0x9d143f1b48eefea2U, 0xabd1d4f5c006efbcU, 0xdb1ad1011c1748b6U, 0xca2ad2d800e9ee30U,
  0xd25f5d6ba84ce33fU, 0x4aeb70de13030908U, 0xd61155fbe9c508a8U, 0xadcca0bc9065c16U,
  0x7ed1afaee2203ceU, 0x122cdd0a0f0be1c2U, 0xdd11e2eb26c00be8U, 0xbff311bfea11e5ddU,
  0xf5fa06d6ffec0c5cU, 0x250b811d0bf1f3f2U, 0x38e70900f409951eU, 0xbf406b69449e2fbU,
  0x95e70bf31507fb17U, 0xcedcbf33ced11de8U, 0xfcf4e3f2ef0c30e1U, 0x19ddead1e0ecf719U,
  0xf0df454556bd1c57U, 0x5139fa38057edfefU, 0xe70fe6d51becf4dfU, 0xe61a042df513f71bU,
  0xf3d4dee4bef801f9U, 0xb3faf8ebe21be600U, 0x16ea08fbe7e55996U, 0x4df8140df3d85f1U,
  0xbcfdc5ff9f40204U, 0xfc4ae00b91200f2U, 0xe9371825f1c0e18cU, 0xecf5fce3fd37b1c9U,
  0xe4fd30dd02f72735U, 0x538dc10fbf51217U, 0xce8ded5dcf2edefU, 0x20fc06f61aef07feU,
  0xfa1eee0f0cfaf428U, 0x1cfd0a9ce6feeb07U, 0xe9c01a0aeada12e7U, 0xe5085306023906efU,
  0xe81ad41dfe01d714U, 0xf681f90b14f0e7f4U, 0x172412efdbd8030bU, 0xe21af505fbf3f737U,
  0x42f0daf7fb040efdU, 0x10db21ffedf0f424U, 0xf6d00e07e0460237U, 0xee4efbf70fffee0fU,
  0x2ddb46b0171d0b1dU, 0xdfb1f501def03146U, 0x2bf4d63f4926d7a5U, 0x1af409fdf6130a10U,
  0x4cdf022f057fac29U, 0x2309de15fa272438U, 0x1532f2eabdeab0U, 0x30e04dfdc04263aU,
  0xb288d3cfdc21309fU, 0x30f0e9092110c2c4U, 0x16f4e5f0f5ae07dcU, 0xd70acb13e7e12de3U,
  0xd4319d250416ef9fU, 0xcbef920dca1a3f1eU, 0xf42ff22f3707bcceU, 0xbf54c8181b12e916U,
  0xf3ede5bdf125cde3U, 0xf4d824fbf7fec729U, 0xe10cf52d00b6e1e6U, 0x810919e3e8c5aa12U,
  0x3b51409cae4ede5U, 0x986d224f9b826bfU, 0x112912bcf0e5b303U, 0xcd0efcdae7ceea0aU,
  0x1ffa1fe8e5edf2e4U, 0x1a41e0eb19fdef13U, 0x1ad213e2e1daa6ffU, 0xfabe26d50f25fa20U,
  0xf61501dffe06ddecU, 0xba32e922dad108e0U, 0x2e0fd4f7fca6c007U, 0x21f0e8f2ff1866f9U,
  0x5a3c5407defafa1cU, 0x9eccf1345272319U, 0x3105000bf614d3faU, 0x9cfc4dfb30e4f229U,
  0x4bd1120d3834330cU, 0xeeadcd939d0e90eU, 0xccef0edcc003041dU, 0xbd072dfcc3dbf249U,
  0xd520e405bce8d7e7U, 0xe09f7d90ab3e009U, 0x150c28cbf110ccU, 0x2b46d6a7d62333f6U,
  0x3b00025ce62efe7fU, 0x7001a3c0aedf6f2U, 0x34f10c092bcd22fcU, 0x2862fcc446eabbdbU,
  0xbf38f7d111071aefU, 0x4ffafbff02e6faedU, 0x226d0b03e7dae4a7U, 0x1ff0e51dd6e837edU,
  0x60d011324e9b5e8U, 0x811b95af3f411feU, 0xcf0fa07fdfacec6U, 0x5ff127a645e0f1dfU,
  0xe0de1ae6f20d2b05U, 0xf42efc23e9fe16feU, 0xf9bb0af8f65cea1fU, 0xc4ce273605fff712U,
  0xd213b05d2d415fdU, 0xa033f023fe6f1f4U, 0x1d0818e15c0f8dc5U, 0xd5ade109811327f4U,
  0x2003392ee3c3e419U, 0x94f50ef0045a02e7U, 0xeed3b811fbf1b5e9U, 0xa18f444f0f7ed7fU,
  0xecfc0306090bcfd3U, 0xd9fd0cb91d1f0014U, 0x5ff70df111c9062cU, 0xf50802c837fb19e3U,
  0xfa1919084b0a17f0U, 0xf8f7e2ef42272217U, 0xcf8ecdd1abf17d3U, 0xbffed601fdf5f01bU,
  0x250126fbf0ec0defU, 0xdcefde12bc1df5ebU, 0xee13df0bff0aeafcU, 0xecf3d80f0fc4e207U,
  0xfe1323e119f6dd24U, 0xecebfe2a2e16120cU, 0x20174011cfed1fd3U, 0x2416d71f20226620U,
  0xfc002f5418c80b11U, 0x2b2eb1ff0b2fdd02U, 0xcd0a0bdf0406f620U, 0xde1af418110ee6f7U,
  0xed610f0b3f42803U, 0xd61625e190e1ef94U, 0xfd16e90309fc1d81U, 0x4dd0ed4eb51fced2U,
  0xe506264d18310cfbU, 0xddc14ffefece6faU, 0xe220f60731d103cfU, 0x343735fdd005ba1bU,
  0x17ffcbee1552fdedU, 0x7ff9011d31e1b936U, 0x2c31a03fffefd05U, 0x51f34f816100ef8U,
  0xecc41618080b04eaU, 0x32b0f01f1f4b210U, 0xf215940fe225fb10U, 0x30dda3eb2ede1cdU,
  0x6e13febffbfcd246U, 0xfbe5fd00b1edf5e0U, 0xf113f2fa0147fce8U, 0x18f8f4b0f3e631e3U,
  0xeb08dbdde9f30214U, 0xeb192e0322d131a6U, 0x3d2d10b05f7fcc2U, 0xdecef170bffff09U,
  0x13052708cde22cf7U, 0xf3134d092a02180aU, 0x412de11e42ed2f6U, 0x4731daee17f91d0cU,
  0xe929bcb7ebc014e1U, 0xfad2f7ede9c2222cU, 0x25b4f52b06cced28U, 0xd028790d114213c3U,
  0xb8fa1500ec1581ceU, 0xde8af119391b2df8U, 0xdb25245c030ef8efU, 0x1fcdaffead2f416U,
  0xf923d20b24c229e3U, 0x72c9d50713d928e8U, 0xd3c70702ee51ebd7U, 0x14f2030828ceec0aU,
  0x36f51ef0d7e6dc1fU, 0x2f9f11c552f10fbU, 0xf9b716f620e4d62cU, 0xde32d223c2af036U,
  0x2fe60afa99f740f8U, 0xfe843fce3170125U, 0x3bf8f40c0441f5e6U, 0xe2fd44b70b31272aU,
  0xf4048103feedddefU, 0xf5ee162ac91dfbbeU, 0xe419ff24300e05abU, 0x48fac11320f1aeefU,
  0x1fb4e410429cbe7U, 0x11db0a1ec711d920U, 0xf1cbf307dad53e05U, 0xb25f71a79e727ebU,
  0xfce7070d0102191aU, 0x26dfebf7f3f80228U, 0x1d2525e7111a03d3U, 0xfaff16f91ee207f9U,
  0x331005eddf16f309U, 0x711271308f8f6edU, 0xfce7f2f8d2ed04d0U, 0xfee40014f30d080dU,
  0x3eab22109f905f0U, 0x1bcc01f8d4e4fbeaU, 0xfd0419d9e6040edeU, 0x1413e30cfadf0ff8U,
  0xeb1dd4caf5151ed4U, 0xeffb20121909fd21U, 0x78108f019060225U, 0xf90b0f00d0173211U,
  0x32241af3070422feU, 0xe3fff5e238680f14U, 0xdb14721e41bcdfaU, 0x170024e8f416f644U,
  0xfce47f3afc0cd40aU, 0xc611d6ebd70cf41bU, 0x390b1a25dd08f10cU, 0x3f11bc81e0dff1eU,
  0x5031191733f00d54U, 0x4109d23092ce1f5U, 0x271ceac01de01cc7U, 0x56351b0895170cedU,
  0xd613f80089e0e40cU, 0xdbf36cee1c25f0f5U, 0x26b2f80ee919f9f1U, 0x31e7edfde7caf210U,
  0x17aa1fedec141e0fU, 0x32fd2fe9d92d3155U, 0x8ebced3dede0907U, 0xf60f35d5f227fa38U,
  0xffd9321b1beae2f4U, 0x100a3bca06efd909U, 0x2e21d4f7c1f10007U, 0xcaffe124eaff1425U,
  0xe429a809f2b3de2bU, 0xf3d2161ccf0b0709U, 0x2e0709e9dc09e8e8U, 0xeafdbb28f4e2fe08U,
  0x2631e2fdf509eeU, 0xeac00a2481ed0e1bU, 0x52c30cfdc0e91b14U, 0xfa5de1fc1903fdfbU,
  0xebe0fcf9b7fb1a20U, 0x551fd22c2de5c121U, 0x73650544ba32de38U, 0x7100c907ffe175f8U,
  0x28e921405f096426U, 0x17d3f32f0a01cb01U, 0x1adaeae6032a0423U, 0xf3fedc111146f9d9U,
  0xfbebe726ea14af19U, 0xf8814a1cb503edc2U, 0xf7befc372c04004aU, 0xe608cdf0822fef7U,
  0xfd41995bae0759d2U, 0x29e9413032011ef1U, 0xb2f33012d401eaa8U, 0x1119d0adedf4dcfaU,
  0x83e8fbe3f3180afeU, 0xa26d4e9fdf4dae4U, 0x141624ed0c08fde7U, 0xe8a1e326faf4251cU,
  0x54f000f5f6f7d222U, 0x2b19ef1c32f50224U, 0xe57f191affaf0717U, 0x3fd7f401dcfc4329U,
  0x561d2407dddcd718U, 0x1370d66543c4eb1aU, 0x24211eef0113f205U, 0xe631e72403c8210bU,
  0x40a19bafab426e8U, 0xf4fc4235e5f1ef30U, 0x1cfa1cf34ae1b930U, 0xf541fc04fa0be9f8U,
  0xf926eb234ef3fd0dU, 0x210a07fe0702f3f3U, 0xc01fe280723a13cU, 0x1521234a2eb1f007U,
  0x7f12c201f6bf1736U, 0xdb5612d2ca1dd829U, 0xdfbbfb09081b35edU, 0xbaff1634f109f257U,
  0xe0f6a1d4191505e4U, 0x36c60936c1e716f5U, 0xc80000e51a3a31edU, 0xf0bf9cd3150b06d5U,
  0xd754f60902f9192bU, 0x91445f3f0e219c3U, 0xe388216972020c19U, 0x2ff6f01bfd32e901U,
  0xd2e70bef0107ecbaU, 0xebf5b0df17e9e313U, 0x471603011c12fad1U, 0x1dfdc810ef40016U,
  0x37081fb7fc3b1133U, 0xecfa1afdff04c91bU, 0xf1f90d25e6fc1435U, 0x21ff301fd3401fd8U,
  0xecd9dde6cc38b90aU, 0xced02d2e00f7c206U, 0x18f5ed1603e60bfcU, 0x16f9fb141704f7e6U,
  0x12eb3be8ddf70e14U, 0xfcd6d90e280cc205U, 0xfa02f63da146f809U, 0x41cf2e0c904bbe4U,
  0x15e516d9cdeb031dU, 0xfe080bfbf2070e06U, 0x5c4bc07dceb0bddU, 0x214f3fece2607fbU,
  0x6dadddfef0fe108U, 0x511e4e709fa2af3U, 0xfe01ec14f50a8136U, 0xbfd22f7ff140b23U,
  0xf701201531ec03ecU, 0xeb071d0b0bf931f4U, 0xdf9bea0aeb0322U, 0xdc14f70626ef1a03U,
  0x11eeae05ead8f1daU, 0xe1ef15f807eaf6U, 0x83104110305ccf4U, 0xf92a9f040c0dfa26U,
  0x2d5fb8165141234U, 0xf61a0bece7cdc1d1U, 0xc18041d12f72009U, 0x19d83574090e4bf8U,
  0x3a1b2323fb02e0f1U, 0x4f1be76f9e116e9U, 0xe71b10c4d3e6e9fbU, 0x1b270cd9270febeeU,
  0x1706e2e7f33023dbU, 0xdd0bf427f3d3ebf6U, 0xe6b0fbd9375c980dU, 0xd2ee4f1ff0ecd2f6U,
  0x438f4dd07f622faU, 0xf0efc0cf1811fa06U, 0x11df0de8091212e5U, 0xda26da0fe2ff20f0U,
  0xf7eb0d2222e8d327U, 0xed03210cef1bbd0aU, 0xe9cd0437093ae4edU, 0x6a342718f7f27fc0U,
  0xe702cde5f1e91c5eU, 0x1cac062523f701e9U, 0xf092e2def6ddf60aU, 0xdff9410a180390d4U,
  0xfb061417e968bdd4U, 0x4b41ecd6a251a742U, 0xf8b609ac23bef1d1U, 0xf5cb1adbfffcc131U,
  0xc3adeda19e61ef1U, 0xedd988020a04ef41U, 0x9bb72ae41c17fd0cU, 0xf033f3efe71304faU,
  0xfffffd8affffff81U, 0xfffff8fc000009deU, 0x2f400000309U, 0xfffffcc800000689U,
  0x4d10000019eU, 0xffffffcd0000063cU, 0xfffffd0fffffff16U, 0xfffffc83ffffff7fU,
  0x10200000582U, 0x314fffff99bU, 0x4bcfffffdf0U, 0xfffffbdd0000035bU,
  0x46fffffffd9U, 0x4dbfffffc07U, 0x1e7000003f5U, 0xfffff3acfffffc4cU,
  0x490fffffec7U, 0x766000000d3U, 0xc100000a88U, 0xffffffb9ffffff5dU,
  0xfffff5cffffffceeU, 0x5bf00000e52U, 0x5d3ffffff39U, 0x310fffffec3U,
  0xffffff0fffffff87U, 0xfffffd9c00000525U, 0x38afffffe90U, 0x806fffffe79U,
  0x245ffffff0aU, 0x5d9000005aeU, 0x15a000009f9U, 0xb9fffffc69U,
  0xfffff8aefffff8a0U, 0xfffff8a50000023aU, 0xfffffe0300000663U, 0x2d500000133U,
  0x12b00000261U, 0xfffffe78000003f2U, 0xffffffd4fffffd46U, 0x72000000586U,
  0xfffffaebfffffaf8U, 0x32d00000a23U, 0x3ecffffffeeU, 0x553fffffd72U,
  0x3c10000037dU, 0xfffffc5e000003acU, 0xfffff562fffff829U, 0xbd70000098cU,
  0x48d0000064eU, 0x25700000dc5U, 0x9410000062fU, 0x1d8fffffc3aU,
  0xfffffe7200000468U, 0xaff00000493U, 0x38f000001e3U, 0xfffffd61000010f6U,
  0x36900000130U, 0x3fffffffdbeU, 0xfffffeae000002b3U, 0xfffffaab000002f3U,
  0xfffffb9a000003bfU, 0xfffffecbfffffa87U, 0x2be0000057bU, 0x59700000009U,
  0x5860889db8ca3c7fU, 0xc1816f66bd6073c9U, 0x515ad8d668566350U, 0xb658dfe825ecbc6cU,
  0x537048d2cdbb49faU, 0xeccd9f7fd07a700eU, 0x81384f6eb9d54b51U, 0xcf7fc0c951339be3U,
  0x6e1c6a5fdc15437fU, 0xac501f3b335e2181U, 0xd5f53b35961fcd69U, 0xe83f382e1003a630U,
  0xf3367fcd6bf93832U, 0x4b1b6181b1271922U, 0x4fba9dc8607ffdb8U, 0x341761c081cd5311U,
  0x2a31f82e8be57f57U, 0xa19e0816205a5381U, 0x327f0ec3fd2a5f7fU, 0x5128b4d251d79b7fU,
  0x45187fa69ea178daU, 0x7f65eeef9d7f7f21U, 0xdc5b7f40a41f7f44U, 0x2ee1be856c458cf7U,
  0x4d31392f693ed16cU, 0xcb764d27422e4a2fU, 0x9d3363269158657fU, 0x543a7f36275c9d61U,
  0xf6723fcc4ad07f5eU, 0x7f4534992c7c3434U, 0x7fd8b41f6a64cbbaU, 0x4a5a77f13da64b7fU,
  0xa3a22568c3e74e0eU, 0xe1d0fabc7ffa2fceU, 0x8a2e70e8e0c5043aU, 0x35b1dbe121caf003U,
  0x98155b9c9c247f2U, 0xd5bf2aaca96d35f0U, 0x1b4168f9e44df8c1U, 0x26e2e7ec3a0bd119U,
  0x2bc0bdc9436df82bU, 0x16a72e1308ea275eU, 0xc6002be3e136f318U, 0x8012dc52245c145U,
  0x337119d70be52a65U, 0x2220d608257f0831U, 0x420ce7581125b2d8U, 0x814f183c7cadc5f3U,
  0x7f7f8181b3943c64U, 0x95327f7fb77f617dU, 0x7fa6fba67f7f6fdeU, 0x9763af5c4466925cU,
  0x7f6edf81d28138f3U, 0xafe5810bf569315fU, 0xc27b33739f15437fU, 0x815d819c437fa037U,
  0x72287f7fc1fc7f6bU, 0x812a6a7f7367200eU, 0xc4467f7f9f3cc83eU, 0xca5dcc5f4421f74aU,
  0x371c77d77fd94a4cU, 0xf5f68978145575cU, 0x593a1be37f76f3b1U, 0x31357f818a4f167eU,
  0x4972230481817c58U, 0x813ee503fe5e7f49U, 0x5dc23581194d7ff7U, 0x6b3681537f7f8154U,
  0x453de08eab8f7fb2U, 0x727fd020812d617aU, 0xb7f5b7f896b4b47U, 0x50e18b817f6b8166U,
  0x7f4f78377f25cd5eU, 0xc7647f6c7f497f26U, 0x817f7667817f7f35U, 0x7f7f1a3d7f7f817fU,
  0x7f7f61816681707fU, 0x347f7fcf3c787f7fU, 0x793c2e2d7d518181U, 0x727f7012097f2f65U,
  0x84a73353d1bd7119U, 0xd627eda1724a2eebU, 0x85e27fb5b1c82df3U, 0x2481c5094021c619U,
  0xf89b10a381bd5481U, 0xcfae33f09afa243bU, 0x401c4818947fe18aU, 0x64e1dbdd4712c048U,
  0x24810ae8537fe029U, 0x16962e1a08036ef4U, 0xc62c3800d749d415U, 0x3926f3813e54aa41U,
  0x4b5309ba06c0132fU, 0x183c2b09447f3a49U, 0x3d25187f242281a7U, 0x977819637d3ba9cfU,
  0x1a0daeaadcad12deU, 0xc2604d0bce280e3dU, 0x42f2ebd81f2c33f3U, 0x811dd67f1ca4bfe2U,
  0x161ec79af289d102U, 0x94e88989f2dfe16bU, 0xfd39f724b5361843U, 0xaf1cb9d4e14ae26eU,
  0x55fb453cccbd4313U, 0xceb2f84822810541U, 0xe24e466cbd19a6fcU, 0xef39ed534018240eU,
  0x4b06d1151bda0f38U, 0xa91c24b3c6e55a33U, 0x2e7f5de14527e9cbU, 0x140a23aad49ee77bU,
  0x253715ead3913c00U, 0xba48ead7f32c1947U, 0x48e923b1082545f3U, 0x141bb76a2bc1b2e9U,
  0xf221b59bdbb2f5e8U, 0x1b43c323d6dadd7fU, 0x3c1edc468162ed0eU, 0x25e5c1dfef41c97fU,
  0x4526562a0aebdef7U, 0xe1ef1e433da9630eU, 0xdd512f4fc82c49d9U, 0x4953bb136125be1fU,
  0x5f06d1d60dda0648U, 0x89286bcc180d4b42U, 0xd787f213b019d8fU, 0x171e040ffebb142aU,
  0x8e09262605e3f9f8U, 0xec2701f0fb1ae8ebU, 0xebed41d8ea032be3U, 0xeff5d72a10f1e6f1U,
  0xfee3bfdb9aca07c5U, 0xdfb71d19cbb0dd40U, 0x45fce421c61eaa9eU, 0x4bf9e9f11503e140U,
  0xf6d12f0f0f28ec01U, 0xfb812e1309fb68c0U, 0xe3461715e925dff3U, 0x3215b9bf2e1ab411U,
  0x4100edddf9e605f3U, 0xc424370f2a4e3aedU, 0x112b2e2d13edc6bfU, 0xc212fa321ae681b7U,
  0xfffff5b2fffffa47U, 0xbce00000b86U, 0x41d0000022fU, 0xfffffea0fffffb3bU,
  0xfffff701ffffff4bU, 0xffffff23fffff67fU, 0xfffffa8dffffff89U, 0xca6ffffffdeU,
  0xfffff5e7fffffd2bU, 0xfffffc1cfffffc23U, 0xfffffa8800000b26U, 0xfffffc86ffffffc3U,
  0xc39fffffbc7U, 0xfffff8b6ffffffb6U, 0xbacfffffba7U, 0xffffffb4fffffd9dU,
  0xfffffa8c00000766U, 0xc0c00001135U, 0xffffffa700000f80U, 0xfffffb81fffffe55U,
  0xfffff8ecfffff94dU, 0xc88fffffa57U, 0x728ffffffd5U, 0x290000000aU,
  0xfffffc04fffffd84U, 0xf97fffff95aU, 0xfffff91bfffff7b1U, 0x11afffff758U,
  0xd8bfffffa80U, 0xfffff725fffff926U, 0xbcf00000b5aU, 0xfffffeb9fffffd89U,
  0xfffffd76fffff6fbU, 0xfffffd43fffffc06U, 0xfffff835fffff9c9U, 0xfffff74effffff86U,
  0xfffff65afffffed9U, 0xfffff892fffffe2aU, 0xfffff70efffff7b2U, 0x734ffffffa8U,
  0xffffff00fffffb05U, 0xd08fffff683U, 0xfffff602fffff7ebU, 0xaf3fffff9f8U,
  0xaa2fffff8b2U, 0xfffff850fffff800U, 0xfffffe8dfffffe18U, 0xfffffb26fffff67dU,
  0xfffff7fffffff6d2U, 0xfffffa51000008cfU, 0xfffffbc000000861U, 0xfffff922fffff752U,
  0xfffff80ffffff72eU, 0xffffffa3fffff62dU, 0xfffff65500000a95U, 0xffffff50fffff7cbU,
  0xb9500000d2aU, 0xfffff77dfffff6cbU, 0xfffffe7efffffc63U, 0xfffff6c4fffffaf0U,
  0xffffff40fffff8ecU, 0xfffffff1ffffff6fU, 0xfffff90d00000222U, 0xffffff48fffff860U,
  0x110433347fb6ba41U, 0xd605652514e5ddd6U, 0x268b15d81e1cb6fbU, 0x30fe0cf8cfcde9daU,
  0xdacb5ec20529e1e6U, 0xaffb3b209bfc0e1cU, 0xff24c5e3312ad71cU, 0xe9fc29080d13dbe4U,
  0xfcfe10e2fd2feb31U, 0xe0f4d1210de1b41aU, 0xeb05111bc5ecb3U, 0xfaf83f022c0e1a08U,
  0x3429f228c507fc41U, 0xb5d04afd10ebc8f9U, 0xe300480ede12011aU, 0xe7f42f2b002ec8d2U,
  0xeace14edfbfad6d6U, 0x7feee9c51cff2115U, 0xccfbbd1300dd0808U, 0xf4bdf0070b05ee1cU,
  0xfc12f61cf9f7f233U, 0xb7a7fadc06030905U, 0xf1fe27d51ffefea3U, 0xf6bb1cf2160f171cU,
  0xdc007ff9ae8e8efU, 0x90ff4080df01701U, 0xed08db08ed12d301U, 0x22b0dc9fd2d0e20U,
  0xb0b080efc06fe0dU, 0xf9fffee6fd1800f8U, 0xbc05230ae1001f11U, 0xb2dc12f7e10607d6U,
  0xb03c33fd3f224dfU, 0x8e3c6fc3d6506ebU, 0xe9f1cff2e1b9bc0eU, 0x3edffd151721fbc4U,
  0x2e0a00f165027dcbU, 0x814114120eff0f0dU, 0xca8e2d1a9e33f1f3U, 0xd9153fd0ddde009fU,
  0x190b0dff6a98f03dU, 0xbffae1ebe4eefaf0U, 0x24f2fecf2a00ff1eU, 0x2cf7bbfd65d85f14U,
  0x9a0ff8204206bd24U, 0x67ddd03dcce04026U, 0xfeedb8d52c0a3c05U, 0xf1589aed06291210U,
  0xe82904f8ece8f03dU, 0xf91ce40a03e50402U, 0xc0ef3e1001af1ffU, 0x4faeeffec12810bU,
  0xf6f60212184df706U, 0x50dc2f113e51defU, 0xf3f9d2f8fefae921U, 0xea0b1be5ec0d4110U,
  0x1b00fe12f70d0d04U, 0x5fdc5f80fe0e8f1U, 0xf200e81015db020aU, 0xe2f41ef4ee040dU,
  0xf1411406ec25df14U, 0x24f9030e1c12fa04U, 0xd418ebf41103f021U, 0xf1f80504e713fce3U,
  0xa6f604fc00ecf1e8U, 0x79d517e6f02c100bU, 0x2deb0be90a68f513U, 0x244a2cdf01ec3f1eU,
  0x51eeaf00dede9ddU, 0x3181e910e7f40ee5U, 0x4edef0b0b20fb9fU, 0x9f8b0f171af64305U,
  0x110f1b15baf8ccffU, 0x15e6fe19f806ee04U, 0x1af5f5d99ae3520cU, 0xdd1252402fa39edU,
  0xfe18d4001403f5U, 0xd4ea263a24f70bfcU, 0xe31ae802f216eaddU, 0x6af8164afb1236f2U,
  0xe6dc240efb104d45U, 0x38f64d2ce4d1fe1cU, 0xfc150ccdef00fcf5U, 0xed81728fb0414cdU,
  0x14edb3ff2b0d17e9U, 0xe7dee5ee4f09231eU, 0xf205f400150d0ff2U, 0xab5f621f2134501U,
  0x5d0ab8f6e2b8effeU, 0xf9e6e91b111ef0fcU, 0xcbe437412810d8edU, 0xee11d0d91ade1c25U,
  0xd305e7a91116ffc7U, 0x6b4ee100d79dd639U, 0xf0f7520c3223e71dU, 0xc7efef0681470e1dU,
  0x167fded6e8ded5e5U, 0xc31e0f200aeee6e1U, 0xf1e3dc1045a6fc0fU, 0x342ff6fff608c313U,
  0xc7d60600f6411117U, 0x24f513d0353c05e7U, 0xc9cb0bf00134f736U, 0xf8e00b00e3110602U,
  0xdf1224fc74133ff3U, 0xe023f8fdecdaf61fU, 0x12e9f4020f0da8fbU, 0xe6000ce314e6fa29U,
  0xfb2afc1a0325ddbbU, 0xdf0eae8d7f2f010U, 0x708fbecf6edf9faU, 0x16e409e33d14382aU,
  0x3032070fe3d2ef00U, 0x35ccd22046f0f1f0U, 0xede8aed60f0207c8U, 0xf9f40ac8f5b7d50dU,
  0xb9c7e662f705bc02U, 0x78104e0cf06bc14U, 0x54dce5d8fd440109U, 0xf919f6d4ddfcf51aU,
  0x1c02e4fcea1d61f0U, 0x313517d2d1aca616U, 0x17f0c812a1140f20U, 0x79be091e94faf6e3U,
  0xd439171dfa28e01eU, 0xc004b5c2011029cdU, 0xd432ce001bb9151aU, 0xd9461f5c1e0b18fcU,
  0xf30bedf519fd1524U, 0x1bee0e0c0020fef8U, 0xf10bf9ebf8ffebb2U, 0x12e634ccefbae716U,
  0xe5f57f1f0814bc09U, 0xfe06fb08e0e907e6U, 0x1b01fee6f9f2ff1fU, 0xfe1ae5f0f2fd1fU,
  0xe71600f408de052eU, 0x1af60223e7caf029U, 0xe11adbe619f60479U, 0x19dfeb00d10b39fcU,
  0xe6d9d804a2270a21U, 0x1b0bf61ef2073bf5U, 0xced1ff31ff31107U, 0xf2fef7011afff423U,
  0x8ec061681f51406U, 0x3b1945f9ecf9d111U, 0xea3ad31a09fecb1aU, 0x9ed2800e02fda23U,
  0x2ae323ded615284dU, 0xd8d0def0e6e8360bU, 0xf31229f60df4b3e6U, 0xe9c8f529e41b201cU,
  0x909f6010ee21718U, 0x4e16aae5ff11e4fcU, 0xfe012cf549d2ea0bU, 0x11d71bf7dd12f8e0U,
  0x12e5f0fbd209ff03U, 0x1921d529d4ba1ddcU, 0xc0d6d7e7111e2712U, 0x1edf1e3f1fbe5f8U,
  0xcec0cf10440c981U, 0x4a1824bff6f219U, 0x2b31fe69a52e3025U, 0xe217120fea10bffaU,
  0x491b0e60fb41051cU, 0x13089332fb3deb02U, 0xec22e8e4f7e92d51U, 0x5c2f42e170bfb2eU,
  0xc3f7f903c02bf4e6U, 0xe4cf27fe392714fdU, 0x15e90b2bf6faf728U, 0x5def122e31e0c02U,
  0x3b05ec993102df20U, 0x2ce40ce33d5bc2d0U, 0x2a24f10be32701f8U, 0xe41af81ce1023ebeU,
  0xffef6ea07e3fc1dU, 0xe2bd3603ef16272cU, 0xe030fff3835e12aU, 0x16fa1344cff1e1ceU,
  0xe5a1c563e6eb9d12U, 0x2f2101edb5b1e12eU, 0xd6170bdbcbcfd7faU, 0x170f14eb15fbfacbU,
  0xeb12d400f7e72df6U, 0x147fe2e8f3f2eb12U, 0xdec719e2f82f011cU, 0x18f208e234d5U,
  0xfd6bd48d0b14031U, 0x1b0ea646c6c9c5adU, 0xf70c01ece8feec82U, 0xf4c2e9082a102586U,
  0xf1381a12f8dde32cU, 0xd108fe0004cb1af0U, 0x73f2e3032048fa33U, 0xf4f950dd37e681f5U,
  0xc0c759ef3be4d527U, 0x1124baf814f50a47U, 0xf0cd8eeb01aeb2cU, 0xf1e248ca0cd898ffU,
  0xd23cfc3ef25be8e1U, 0xe1f426f8cc27f01fU, 0xd43116e434f90911U, 0x9caf6cd1f3067d6U,
  0x2a231616e056bb2eU, 0xf00123155a0404f5U, 0x3bfdfbd1f74fba32U, 0x1fd1ef340f0b24beU,
  0xfd29001f8101f61bU, 0x3609222f17cf3a3aU, 0x117f70c01f5ce08U, 0xf102faebfc0aafeeU,
  0x805100906f52d54U, 0xd8d213042c092afaU, 0x3df19f3df070f06U, 0xf3da02e1def943feU,
  0xf102f51bf6090308U, 0xfffddd3b070f4c0fU, 0x11317f52ce808e4U, 0x400eaf13a252302U,
  0x19fa112be31d041eU, 0x180bfe0517f5ed1fU, 0x9906ff0a31ed3917U, 0xdbfc0ae9ef020afdU,
  0xfe14f209b130febbU, 0xfad9fe00c9080103U, 0x2222fc380ce92731U, 0xfb290e030f06e117U,
  0xf304e6db0d14ef09U, 0x171b09f73b18dbdfU, 0xf3bc3bfc1e1ae70dU, 0xf31fc214e621ef30U,
  0x7ff5f42df5f104f0U, 0xf9eaf804eb0afcd4U, 0xd802062715d91401U, 0xe831e407cc01afb8U,
  0xf809efe044d9debcU, 0x31e236bb1cef9427U, 0x230303e1f1f5c50bU, 0x2bcee8dfd94121feU,
  0xdb14ff81022ea0feU, 0xe2e9f155ed001e2cU, 0x13138b32fab107d8U, 0xeaedf4e8ed100f18U,
  0x6dc382ec500f726U, 0x1de2b05562b40e7U, 0xe7dd2ca01a081bfeU, 0xe6fcf6000818f0feU,
  0x937a4f73ffdc6f2U, 0x1be6c3f4d0e40605U, 0x1d03151b31f0ae10U, 0xd60834e7091bd301U,
  0x10031d451402caf3U, 0x4f3f5f1db001910U, 0x2403f7f2090e3b45U, 0xf39c12d2b20b3bd1U,
  0x1627d7bc03101116U, 0xc718d2f6f5c71004U, 0x3507d9d320814aebU, 0xeff716110efe19feU,
  0x1fd0e700440a57e4U, 0x12e4402cfed3318dU, 0xcecbd428e6d509ddU, 0x1e3cd7d9fb2dc6f3U,
  0xe60561f4520ff0e2U, 0x5c4f61bcd2c1be9U, 0x480cf4e83b110f43U, 0xe18dcff03220cf7U,
  0xb5c40be9d3be0cfcU, 0x1ae71177110f5eabU, 0x1affe3f3f1d34bdbU, 0xafd304d97108cbb7U,
  0xfd053206d315e20dU, 0xf2cbf0014af9bffaU, 0x15f2fb810e011bf5U, 0x907b3d4fe14c904U,
  0xe336dee7d202f102U, 0xc1b110f2b02edf5U, 0xc7f42dfcf8f5fd0aU, 0xf803eafddb2b2de6U,
  0x400105f6e9350bf7U, 0x16fdf9ad46d10cf2U, 0x1603aeec0808fd0aU, 0xf3c052aeccff1ffU,
  0xd50a1116f324ca17U, 0xfc10e20b28eae201U, 0x51b12f5140204e0U, 0x18f13010fd1809e3U,
  0x1c10f10cc302cd1bU, 0xfda16e9f4e49014U, 0x12406ccffe43406U, 0xff513001c1a8107U,
  0x260cd21b01021422U, 0xefe50df616f1dd0cU, 0xf40408fb02f10cf9U, 0x8033947d012d5eeU,
  0xd80200ece2d2171cU, 0x2ee708ecff0ae309U, 0xff20b1ddf8bde21eU, 0x2bdce6301c08f42fU,
  0xfb0bf50409e4b0f1U, 0x2227f9d705a8ddeaU, 0x2ee60522031ddc2dU, 0x15f51deed828f11bU,
  0x3fea10e5142324cdU, 0xda05c3320c120eeeU, 0xfa0308c90fb38109U, 0xe6e2f81095ee41f9U,
  0x18f31e2c292e26ffU, 0xe2dfc155ceb4700U, 0x1b6b2f010ecf30eU, 0xfe2fd4ceeeab02daU,
  0x2a12e51c04fb27e5U, 0xcd07c1fc2515e3eaU, 0x40ee373326cf2118U, 0xf3140d10d90e1410U,
  0x60e2201faf7U, 0x25dfcf02f228530aU, 0x82102160931ca31U, 0xdb8ddce80efe30fdU,
  0x1f0f0edd408eee8U, 0xe710f90308161409U, 0x7dae7f11011e3ebU, 0xf30d21fcd8e509e3U,
  0xf012f671f4fed204U, 0xff0ff7fdcff702eaU, 0x3edfad699ed1208U, 0x91215ecd6110a06U,
  0xc4f900ee0df7fc31U, 0xf5202aeef0d50617U, 0x3fdc1efffff1fe4fU, 0xde3db17eee26319U,
  0x3e5d32cc5ff2a37U, 0x2ae0be2be6fc7fb9U, 0xe2c7efd702e60b90U, 0x6f2d9fbceca00d7U,
  0xecd62f2c25dadff3U, 0x48c31ae23828fde9U, 0xe6f22b0f20fe05dfU, 0xeed803b425d530e2U,
  0xe1a423e036f98fc8U, 0xbed638ca33e0f1b1U, 0xeb00bc20f6119caU, 0xa2bb10c927042fe8U,
  0x208b5fc38319a0bU, 0x4e1dde0eadd3f853U, 0xf013ddf90b1daff9U, 0xd60e5fa80df3f30aU,
  0xfa2c190010e72e24U, 0xe60c364129498124U, 0xd80fe4081af4f17dU, 0x71018445e21f0eaU,
  0x111914ffcde91452U, 0x14d70411e7f8c805U, 0xd72cf5f9fdcc18c7U, 0xfb01f52bddc41dU,
  0xffedccf6130af9b6U, 0x120b06e8811910dcU, 0x16f41bec16dce6fbU, 0xcee171434022fe0U,
  0x6d6eefe2ef81b0bU, 0x1bfdd10646bcf9e9U, 0xe3faf223fafedb1bU, 0x3eb050126a0e2d8U,
  0xfcfa00dfcef021U, 0x1030dbefefd60bfbU, 0x281af51aefd5e3fbU, 0x16f3dd14e920150fU,
  0x2d90914ce3c26d9U, 0x18e8bb15ca15e5faU, 0x701cba406cacf04U, 0x6a51ad7c5f27a57U,
  0x54f307094d932bc2U, 0x270c04f5fbd741d4U, 0xd295b5fe5e14c2e7U, 0xc7f6f11507013712U,
  0x2c1bfae90f124413U, 0x16c4c4e11fe0a4feU, 0x3429061f2ab001d5U, 0x3fe77fc21a012d26U,
  0xa341f7e7910824ccU, 0x3dba0d1934eb9dedU, 0x54a5f9e3370ec914U, 0xc4b0d443d823f0dfU,
  0xef5080442da2cc5U, 0xc5f31f48cfdef2eeU, 0x2a2fc2d20201df9U, 0x4df75bf627a332e1U,
  0x20e6ed0e192fbea4U, 0x2b2d1dcdecfce85fU, 0x9dbd43f922e32132U, 0x1c2bf21513ebf781U,
  0x7f02debf4013b69U, 0xd6e12e5af5cf03e7U, 0x2011e263bb91becU, 0xc9f2ba404c9f0e12U,
  0x8f5940ce10a21bfU, 0x9b05f81726ed5dffU, 0x53eae6fff5fb0ff8U, 0x6f7adfdcfd1e4e0U,
  0xfff0f61ebacb111eU, 0xf9dffad223c2191aU, 0xe9dbecf79e69f20fU, 0x1016d2e7ee01aaf2U,
  0xaf90fd911e0f3e5U, 0xfd29051cdfe821dcU, 0x111b1ed708f98114U, 0x25fbfceec5fa30e9U,
  0xe90b0df8072c0e09U, 0xba50ce7e0280f00U, 0xf3f855f3fb2a1ff0U, 0x3fd20332bf01e7cU,
  0xf1f16fa0230aaf7U, 0xee21e00a232e090bU, 0xfcfd36f90accf7d5U, 0xc8f8c917f04fff02U,
  0xa4ee6316fbbd81f5U, 0x358736ea07550ae2U, 0xcaf33aebf9eba5a1U, 0xf7121daf1588110eU,
  0xa0f62cf91316e5d4U, 0x313cee3091935U, 0xe0dda0b43fd1389bU, 0xbb1f5e5b41e375f1U,
  0xe73cff0b0f5ce2e3U, 0x23b362f3dc6deeaU, 0xc5110519dc45a1faU, 0xf6c768c8db06ec13U,
  0xe52fc36c617df61U, 0xf3f0ce13fcc2d258U, 0xf0583815d9022119U, 0x1b0307380714d3d1U,
  0x5e002bf4e0f30723U, 0x81f0e4f6e6f9e915U, 0x2f2610afede80205U, 0xf01cdfe2e5fe3be2U,
  0x1e38f702112147ecU, 0x1e0b1c67581c04f4U, 0x3cc7caf3db49cd23U, 0x2cf9d70a0ddd1014U,
  0xeef82a0624efdef5U, 0xd1edc1bb52cfa3aU, 0x2de304e9091218f4U, 0xe9161021e2f432feU,
  0xdedf516fe35cbc7U, 0x68e1e217dddcef02U, 0x1d13faf835242489U, 0x1746dfe9f7fa0946U,
  0xc36d0f14723cc6fU, 0x150decdc33d47fd2U, 0x6329f6de1ee90cc7U, 0x23d449e810f5f63aU,
  0x59031e29c610db53U, 0x621d93d47e7fefbU, 0xd7f4e409fb2d2932U, 0xd8224739f43fa2edU,
  0xc6ffd709fa1d17fcU, 0xf40bf8021ff7d6e9U, 0x64effde0821eee9U, 0x21030deeb5002892U,
  0xf2392ad6b3283fe7U, 0xece3f7e12b36f9d8U, 0x13df08fbd3480104U, 0x3ea6247efabde08U,
  0x29f0e90c3501c7deU, 0x2704021138044142U, 0x3889efe7ffcbfb08U, 0xf5db812309291b0cU,
  0xde12cee9f17020f5U, 0xeece29df6221eff2U, 0xfe9c98ed5a034a05U, 0xc6e1e29d17166f03U,
  0x4ad611189dfb0824U, 0xa664f5ef24a74b9aU, 0x2affd1f518de06e1U, 0x14310d33e847da50U,
  0xeb1612ffa44f5c07U, 0x1cd4f80f3efb90f8U, 0xb41959ad0b1456f4U, 0xc6eae424e21a30b2U,
  0x1019c3ddff951eb5U, 0x102ce305293b370aU, 0xe401e61cf1c41f4cU, 0x163f134e8800e0eaU,
  0xd7f676640a5ef517U, 0x8fef0e515ebcc71U, 0x4bdde404c305d8e8U, 0xea1a08daf21bd0d4U,
  0x9222424f3f7c02dU, 0xdcf6d622074ce135U, 0xfd0bdceddfd097aU, 0xbbe9f9fc98f90d4dU,
  0x3aeef7ff5a06ad36U, 0xe6bafc21fb4853adU, 0x38ed6218b8af28c0U, 0x37eb811e1aeed915U,
  0x231a00d6e33305c2U, 0x19f9e6d01acf08e0U, 0xefee0dff13bbdbedU, 0x1ee21c08f2fd08d7U,
  0xd02e1f05fb0f06dcU, 0xe2f41931dcf1ca0aU, 0xf481e8fb02f6100aU, 0xe8f602d8fa15f7faU,
  0xf2e1f011c7ef0c30U, 0xcd121b26b2ecec01U, 0x1ac9f3e5131b01dfU, 0xf4e12a0a00f10215U,
  0x3a231b00e02aefe3U, 0x122be50bfbe42e15U, 0x6faff1fdef40515U, 0xe1ccf4f35640062fU,
  0x25b9c1bdcff21ce5U, 0xdf6e1507ddf60e4fU, 0xdc89114b20d40dd6U, 0x40bdebe8db7ee240U,
  0x3ab903e70afcfaU, 0xf916c0e53aacf5U, 0x12c7e4e9e6090eeaU, 0xfdf9ebc033f6fc47U,
  0xecfe09ee15153d47U, 0x91931f7f52408e9U, 0xb953c7e714112281U, 0x53ff194dcbc5eceaU,
  0xb3dd492bcaff0cecU, 0x23c8122399df11bfU, 0x6b117b30b3aef18U, 0xd7dee4edf8e5d5feU,
  0xf835d405fcfa1d55U, 0xedebede725caa5efU, 0x2dbeff33d3ffb04U, 0x17ee14f203e781ffU,
  0xc3f6ef201006dc10U, 0xfb0ec9f2c0d5dd5bU, 0x1dfc2b1221e7c635U, 0xefd482ce225f21dU,
  0x1614f34409150bf2U, 0x3205c5192d2202e7U, 0xd8ebfce5f70228deU, 0x21ec16e60ef6d3e9U,
  0xfe2b3ae8d01ac1eaU, 0xfa39a4d0fff3f4d6U, 0x1007fd33f01ac521U, 0x1e67e01ea0b351aU,
  0x1915d0f90d10114cU, 0xb3cfcefeee021f2U, 0xf01eeff3fdebf9e4U, 0xe5db0de6f9fb0745U,
  0x7fe7190a0416e7f6U, 0x11dbd914cf231ef8U, 0xb2741fa23fff7U, 0xf0074332170fd507U,
  0xd8fc17020c080b04U, 0x5d8f40d1919f1faU, 0xca1e023cd000fe56U, 0x6e817ecf42922ffU,
  0xf50e3741085b0d1aU, 0x9d7f4e8e45539d7U, 0xe44ec13d822d7edU, 0xfed90c01f5fbd7f4U,
  0xfeee1ae8fe32020aU, 0x1aee0de5e5ebee07U, 0xf4dd0f0f04faf707U, 0x135ae02bf50dfbU,
  0xe019d9967f123005U, 0xe0febd301706fed9U, 0xefeafc266e0b14f1U, 0xc80912f40ac6a722U,
  0x480e011afbf504bcU, 0xcbfcf80de4e6220cU, 0xeb08262b1cfffc8fU, 0x252ef505f801c9b5U,
  0xf30b33c60e17e192U, 0xde1927c315eb8125U, 0xd8e30d13e7133458U, 0xfa0d532407f90339U,
  0xe7df1c0fd7d325e2U, 0xd4f227fcfdabf128U, 0xfd26deded0fde10aU, 0x1607e118d1200ac7U,
  0x39fffbce04c67f08U, 0x2af7ba26f4a92400U, 0x29eb0f282d959bf7U, 0xcd2951f9aafa44e4U,
  0xf9d5f117fcf947e6U, 0x2d8dd90271cfe12U, 0xa0f080cf63909f8U, 0xf1fd05ccc4091120U,
  0x15efdbf9d106f2cbU, 0x37eadbfc0ac0f3fcU, 0xe50e0a1eef033506U, 0xecb13fba1fcd308U,
  0x45220819dcedec1dU, 0x1ff81efe0dff1a14U, 0xe2fa0aeee2042b11U, 0xf9ddc31f1d2fe218U,
  0x900fbe90dbacfffU, 0xdd00060e89f02f1fU, 0x4a0c7f0602eec1fbU, 0xefe06a06d8f8f7f7U,
  0x18e704caeefb23deU, 0x1fff06d8e00fdfefU, 0xd150edd042fc610U, 0x16d420031e00fdf7U,
  0xe7db0e04e705b0faU, 0xe189fd00df34108U, 0x990bf638fff90939U, 0xddeffe0cda11e0d3U,
  0x9e1dd128ecfdcf5U, 0x9a1f06dc36fc520cU, 0xd81d2554c8052a1eU, 0xd00152ef5416e4d5U,
  0xd8ecf64fb2b6decfU, 0x4c4b1f200accf027U, 0xe8c6dfecedcac013U, 0x13121ae71b8128beU,
  0x91a2f3e061c0425U, 0xf73c1341c925f7efU, 0xf10d2bc9120944f8U, 0xadbf4e573f416b1U,
  0x20cffa12081ad600U, 0x615eb1c2003e451U, 0x6908c3f05ae4aa5cU, 0x44fadcf3f51908feU,
  0xdaaf19d623ea13faU, 0x4f242524fd13cba4U, 0x11fcbb05ece2c8deU, 0x135d2b49d53103aaU,
  0x1c1be6dad6020e38U, 0x7fdff730f828f318U, 0x38c3a4ef1acdec8cU, 0xadaec528ee072334U,
  0x2432fc18e9f6eff2U, 0xcf5ac4f63100a2dcU, 0x1dc036f002d201c8U, 0xe2e44e01fd282003U,
  0xceec2030d51f0a50U, 0x2ecb7cacbddefd1U, 0xf0e130e092fdbfcaU, 0x65b4ede3f21fff19U,
  0x2d4c14f9e691ad36U, 0xbfc2200b45d9119dU, 0x12fcc2d10532d6d8U, 0x80d2f20eed1b7e2U,
  0xd594d9f313e00f2dU, 0xa4191bf45ee5bdfbU, 0xb99837110103230dU, 0xc38e81281269231U,
  0xe10209c667e41632U, 0x520ce6cec498fbb9U, 0xe6c3b31e1ed0ae17U, 0xff52ce2ab8fce214U,
  0xdffbf16eb7e91a0aU, 0xf910ead71adfd921U, 0x32f230bed2325c8U, 0xd8d39371031f300U,
  0xc5073be900e90b07U, 0x1c26f1e8bc0ff031U, 0xaf5243b04f9e509U, 0x19d41feae7f60103U,
  0xffe0fef12e16f7dfU, 0x2354e11b2210c00U, 0xf80b1be20daa0cf3U, 0x8117fa35f11f2a0aU,
  0x34f9e0d484da1918U, 0xf8468f0ef53518d9U, 0xece837001e0702dfU, 0xe9f061f4e3aaddd2U,
