/**
  ******************************************************************************
  * @file    network_data_params.c
  * @author  AST Embedded Analytics Research Platform
  * @date    Tue Jun  4 18:02:55 2024
  * @brief   AI Tool Automatic Code Generator for Embedded NN computing
  ******************************************************************************
  * Copyright (c) 2024 STMicroelectronics.
  * All rights reserved.
  *
  * This software is licensed under terms that can be found in the LICENSE file
  * in the root directory of this software component.
  * If no LICENSE file comes with this software, it is provided AS-IS.
  ******************************************************************************
  */

#include "network_data_params.h"


/**  Activations Section  ****************************************************/
ai_handle g_network_activations_table[1 + 2] = {
  AI_HANDLE_PTR(AI_MAGIC_MARKER),
  AI_HANDLE_PTR(NULL),
  AI_HANDLE_PTR(AI_MAGIC_MARKER),
};




/**  Weights Section  ********************************************************/
AI_ALIGNED(32)
const ai_u64 s_network_weights_array_u64[1532] = {
  0xbc86bf05bc87095eU, 0xbced7480bcffbd08U, 0xbd1701a4bcc20ac0U, 0xbcdc551bbbf22402U,
  0x3dbbc03a3d658ccbU, 0xbcdd67ea3b837d44U, 0xbce93370bceb87a4U, 0x3c409a89bca80c7bU,
  0x3d5468d33cbfa944U, 0xbd3a67553d0ecbd8U, 0xbd1846bfbd1b38b6U, 0xbc8684f3bdd22ed3U,
  0x3d51b3713e1f24a3U, 0xbd75234f3cb71462U, 0xbbe12422bb19da09U, 0xbcae2fd83cb332adU,
  0x3d93be77bb422b13U, 0xbe2477ddbc266f78U, 0xbc10ef6bbc588c0cU, 0xbc9547183d059e42U,
  0x3d96da3a3d9dc410U, 0x3d26fb7b3d493223U, 0x3d16713a3d6202e4U, 0x3c93b3d73d1e8167U,
  0x3c0311d5bc802097U, 0xbcd65f05bc21d472U, 0x3deed33e3caaadffU, 0xbbfb3ed5bd42a587U,
  0xbda4096cbd95dffdU, 0xbd911752be15711dU, 0x3ba51570bc5b13deU, 0xbd3e91d93ca8dffbU,
  0x3c34ce85bd046dc0U, 0xbc920f4cbbacdfc8U, 0xbc03c371bc7d540bU, 0xbe22a9e1bd6b5ab7U,
  0xbdd1287abe270c8bU, 0xbd8a7cfbbddccc4bU, 0xbdfd32ab3d834e1eU, 0xbd8583ecbd481d91U,
  0xbc071809bd9a09bcU, 0x3cbc0dd33d61325fU, 0xbcb712023d9c16cfU, 0x3d7509e0bb837a29U,
  0xbde45151bce27308U, 0xbb9f41b0bd94ce73U, 0x3c7887753c381ff4U, 0xbd0575da3d2020d8U,
  0xbdc34506bd8b9cd7U, 0x3dd793e3be013f2bU, 0xbd162760bcfd2e00U, 0xbb4e2da9be09db5dU,
  0x3b92592ebcdbe7f9U, 0x3b1f066ebc5384beU, 0xba934d973c3b3e91U, 0xbc9c015fbcbbe265U,
  0xbd26b9bebcd31746U, 0xbc486794bcd491b5U, 0x3d1dfdc3bc1829c3U, 0x3ceacfa93d939e90U,
  0xbd2ee8f93c8d663cU, 0x3d5a94f33afa2394U, 0xbe27c88ebd8b3effU, 0xbc3b13c3bd29c498U,
  0x3c8e85163d579e07U, 0xbc51fe883d09dfacU, 0x3be0e70fb896825eU, 0x3dac2859bd5acdd9U,
  0xbc4817693b568898U, 0xba0026963d0b7477U, 0xbca45b313cb9dc98U, 0x3e041fd63cb207caU,
  0xbbe0b9f4bdb0bcf6U, 0x3d94ea2dbc7a2e6bU, 0xbd3a4f433cf4cf48U, 0x3d5493d8bc0800abU,
  0xbc0529913c84ca36U, 0x3d74bc35bd828b29U, 0x3e3a4b3abdb04264U, 0xb7626ee03d926550U,
  0xbe46239dbdce08d6U, 0xbe0466c3be07e9ddU, 0xbdfe4686bd9ed393U, 0xbce33785be06756fU,
  0x3cdf27553cbbce8aU, 0xbd0e450c3b39a5e1U, 0xbd7bf895bdcbb721U, 0x3ba22a02bd18e6b4U,
  0x3e12689fbe45a9e0U, 0x3da4af68bc2b415aU, 0x3cff033d3ce9921dU, 0x3d15dbe83d80d944U,
  0x3d51d65e3d5442e5U, 0x3c5bd30f3cc5e25fU, 0xbcf66ee6bc0fc9a5U, 0xbdb4a927bcbb9714U,
  0x3e008a84bd8044edU, 0x3da15f16bbd5940dU, 0xbd448f623bd9e286U, 0xbd885a68bd534a0cU,
  0x3e0127e93de5fe25U, 0x3d1b0ee9bd1358e4U, 0xbd6840333c4f4f30U, 0xbe08319ebdba2a70U,
  0x3c0fde7f3c1ae413U, 0x3c63d4e13ab7699dU, 0xbd0da6073c271f7cU, 0xbcdf2b1abcb6ef39U,
  0xbc781e1ebd068512U, 0x3cb112043cb63220U, 0x3d0ff48d3cae8987U, 0x3ae2a7de3d45823bU,
  0xbd00cd1dbc415096U, 0xbd9a825abd5e8ea9U, 0xbdfb1f0fbdc197a6U, 0xbdd123d2bdbf198bU,
  0xbe8150853ce5fd3cU, 0xbd4eedcf3d1b3af3U, 0x3d1cd2c1bca5ddfeU, 0x3d0c10c73c9bf255U,
  0x3cbbc546bc820461U, 0xbd3168fabd1fcf17U, 0x3c82e82e3d461e33U, 0xbd1d0a3a3b20f786U,
  0x3b37cfe83c35273aU, 0xbd1dc253bdb59526U, 0xbc93635dbc565849U, 0xbda0ae19bd02172cU,
  0x3d981bab3c9414abU, 0xbd480be73c88518fU, 0xbda95c553da5b6b9U, 0xbd654756bc9ae375U,
  0xbdb89e22be06e6d4U, 0x3c6da110bc932f9eU, 0x3c0f78493d27577aU, 0x3de95a123d4035f4U,
  0xbd5d0b35bd96faf9U, 0x3bcc4555bd5d3aafU, 0xbc01d9033e198399U, 0x3dd62aabbc2b15feU,
  0xbdb9f532bd1060b6U, 0x3cdaab6abc5038abU, 0xbbd28e213cf8a714U, 0xbe16d463bc58da56U,
  0xbcfe6ffa3cadf20eU, 0x3ca8c927bd4edc8fU, 0x3cb99ee93d81bcbcU, 0x3b0dab923b51bfc0U,
  0x3c4867e9bbfec1adU, 0xbc9067f0bdcf43afU, 0xbc30d0173de0f8a8U, 0xbe015535bd544b3dU,
  0x3d2f9f3dbd2edbffU, 0xbca19b673c5ba2a5U, 0xbd9d48dbbda64cc2U, 0x3de2fae2be282231U,
  0xbd6b486a3ca83010U, 0x3cb67fdb3c9e1badU, 0x3cd9b04b3dce86f6U, 0xbd1592853cff82d1U,
  0x3c5618563d955214U, 0xbe11bc4abc8376eeU, 0xbdceb8d1be04bfecU, 0xbda4f065bdbec3a9U,
  0x3c025d94bc67cf36U, 0x3cd24a003ce27b98U, 0xbd8e70fcbce31179U, 0xbdd02f1fbd8f7a25U,
  0xbc852b3abdb429adU, 0x3d68fccf3a73cc2eU, 0x3e0d194e3d7a192cU, 0x3d5264c63e00a6f5U,
  0xbdc4d902bd8431f1U, 0xbd4ae5ddbdbf1bd9U, 0xbe141861bd7415e4U, 0xbd2188e1bdd46c57U,
  0x3b0de4b6bc976ebcU, 0xbde2ee773cd6a0aaU, 0xbd57fda4be3b2f90U, 0xbc54d486bd1e77d5U,
  0xbc6009283b917b82U, 0xbbb32047bcccc234U, 0x3bcea2993b8c375fU, 0xbc89b4b6bc8199c0U,
  0xb9ee1d00bd017cb1U, 0x3cb4d744bc5c483aU, 0xbcd5972bbbf87ecaU, 0x3c94909439e727f5U,
  0x3d8539d53d281371U, 0x3d6380103d62e503U, 0xbc063e953c578750U, 0xbe196e8dbdf67b5fU,
  0x3e8195ba3f1da624U, 0xbf9f35b7bc463f66U, 0xbf917b5dbef8e8c4U, 0xbf854297bccd4c70U,
  0xbc2b2accbfa2bb9cU, 0xbea9873ebdd8f837U, 0x3f5530d0bf36949dU, 0x3f0eba22bc63c6d6U,
  0xbf31800dbdad08f9U, 0xbf067234bbc13b57U, 0xbd594022be12b512U, 0xbf428d9ebf700f9eU,
  0xbd682cdc3e3440aeU, 0x3e5e47ab3d48ba87U, 0xbe599f9e3e86a601U, 0x3d22537fbe389102U,
  0xbe061080be9cb3bcU, 0x3e020650be97977dU, 0x3e15386a3d19be08U, 0xbe19a823bda7e0b9U,
  0xbd9116c7bcb90cc1U, 0x3de2bbe8be0c1405U, 0x3d6c69ba3d128558U, 0x3df197813dc701c8U,
  0x3e137dd8bc2dec1fU, 0x3e9f7f23be9abb8aU, 0xbe89a57cbe38c15eU, 0xbe618e3bbea32a3aU,
  0xbec4aa3f3c134d9bU, 0xbec5462c3d00593fU, 0x3d67f2ca3e30a386U, 0xbd7cfcfcbdc7c2abU,
  0x3dc4af1dbce25404U, 0x3f0ed877bdb47b47U, 0x3db9dec03e91cb87U, 0xbce8ba653e840bb0U,
  0x3dcea4313db9958aU, 0xbed39259beca99f3U, 0xbe2844da3e9c0d35U, 0x3e66dfcfbec93e59U,
  0x3daa4230beda26caU, 0x3e4cc507bdaa576aU, 0x3e8f93bc3d9cd2e8U, 0x3d0be0fdbe8d95fbU,
  0xbd5ac9e7bd3417f9U, 0x3e7998fbbd164beaU, 0xbe0cfefebd869336U, 0x3dc043ba3d619515U,
  0xbe10d40d3d8f4c38U, 0xbe02890abe0aeb9eU, 0xbece7ad53e046c86U, 0x3c2d0894bda416dbU,
  0xbe92b7c7be4dc5dfU, 0x3e3b1ddf3dff0c42U, 0x3e62b722bdb30442U, 0xbdbb9f9c3d1be54dU,
  0x3e176dc8be7b6d39U, 0x3e30aaf2be74eab2U, 0x3b69a092bd5680b9U, 0xbdb2535e3de4d2f2U,
  0xbdd343a23e33a471U, 0x3ed5a1ddbe3adb28U, 0xbee4182b3d45409eU, 0xbd4188ab3d961af5U,
  0xbdc076a0bf7086cdU, 0xbe85f351be691206U, 0x3e2ce6f53dc425ebU, 0xbd3ab1fbbdd0083eU,
  0xbe2fba57bd49e1d7U, 0xbb83d6b7be003a31U, 0xbd4d770abd577cf2U, 0xbe26f1af3d486118U,
  0xbd59d6c93d1be1b7U, 0xbe8f55b1bd554bc2U, 0xbe82a886be35a238U, 0x3e8730ffbe6938c7U,
  0x3d108bc3bf812567U, 0x3e1d24cf3d0c73b6U, 0x3d2e947fbe2465e3U, 0x3dff70d8bddcc56bU,
  0x3ecd66003e2e24ffU, 0x3ee331b63e36d4d1U, 0xbdbf40173cf8f8a1U, 0xbe1cdd91bd46d6d5U,
  0xbe118fbf3daa9819U, 0x3eb823963d8e9164U, 0xbe9dfa813e7c4b5aU, 0xbd5f4db53d3aeca5U,
  0xbdc816b9bdeeaf2aU, 0x3dfc7b133dda70f0U, 0x3e58f975bda9481fU, 0xbd412aafbe1ff4aaU,
  0xbe4e5ab2be718b98U, 0x3da47322bf07b17bU, 0x3c2d92173d23c9d1U, 0xbe76f0d2bdb6d7c1U,
  0x3e0cd03f3e9d8c4fU, 0xbf075b87be06d395U, 0xbe3b70893e6bc1a6U, 0x3dd0facb3e03c8c6U,
  0xbeaaca1dbf670c11U, 0x3dd7a140bca47a70U, 0xbd902d5a3e358ec5U, 0xbd1d7b32be8a724fU,
  0x3ddf7740be9f5b1dU, 0x3ea73681be729183U, 0xbd7185f3be5a227eU, 0xbe8833f23e7d23edU,
  0xbe61eb5cbd82fcd0U, 0xbd20737abcd16838U, 0xbeaff983bee17fddU, 0x3e8cea2fbe157710U,
  0xbe2200a6bf329523U, 0x3e044731be4f5c85U, 0x3df866acbe0b8134U, 0xbd59adc0be852cd9U,
  0xbe592b38bdff848aU, 0xbe056d19be755044U, 0xbe977ba0be1333caU, 0x3bcbf7403ec1513aU,
  0x3d83baa1bd4f9f6cU, 0xbd9250a63d115521U, 0x3dacce98bc4a492eU, 0x3d05f436bdf51f1cU,
  0x3c7317613b391a67U, 0xbb5b5fb73cf9ba3aU, 0x3df58fbfbc0fd8dcU, 0xbd84b3323ded6c2aU,
  0x3c81c1fdbd478fbfU, 0xbe073575bd78a8d7U, 0xbc899837bd7f9640U, 0x3dbaa60b3de88c29U,
  0xbd0f4c263df4b38dU, 0xbe3237f23d85d1e8U, 0x3d863f3c3dac9851U, 0x3cab19dbbdad3409U,
  0xbc17632a3e6de31fU, 0x3dce95dfbcc76766U, 0x3d3e33c7be17562fU, 0xbd08f7303d69e70aU,
  0xbda9545cbdd32abfU, 0xbdbcdcaebccee467U, 0x3d255810bdc8f780U, 0xbc22d3e13d380605U,
  0x3e4afc2e3df768c2U, 0x3ea316b63d45d9f2U, 0x3eb704a33e3a0300U, 0x3e9e57203e2562daU,
  0xbde658793e660670U, 0x3dce53eebe04a213U, 0x3daec485be2ea2ecU, 0x3dbd05423db9168bU,
  0xbe5ab80cbe01c843U, 0xbe1341953cbba74dU, 0xbdade869bdc0858bU, 0x3e7b23f83eb7dbe0U,
  0x3d8dbac53d1f4e66U, 0xbe0ccda0bce4941eU, 0x3e8e06c4bc996538U, 0x3dce58fcbd9bf44aU,
  0xbd8857283e2aab8bU, 0x3ce7e778bd4261e9U, 0x3e0375da3d3d229aU, 0x3dfa9bd03dc3231aU,
  0x3d97ec72bd3bc043U, 0xbe39a3b9bdb23904U, 0xbcaa54adbdee742cU, 0xbd6cfed83df29c6eU,
  0x3b8c2ca0ba816a54U, 0xbdc781b03d91ae68U, 0x3c0eca433d1fe140U, 0x3e3c30c13d646db3U,
  0xbd9760023bf77866U, 0x3d9c8cafbcb9ffa8U, 0x3dd271ccbdcb7f95U, 0x3d9fa3203db989aeU,
  0x3c860749bd38518bU, 0xbdf0ba71be1f36aeU, 0x3d1f972ebd216e0dU, 0xbd621e5abdbdb1bdU,
  0x3e049e963d923e59U, 0x3df55da13df006cbU, 0x3ea578653e3d3e9eU, 0x3ea89a3c3e10f72eU,
  0xbd70b1bb3e34754bU, 0x3d8a6dc0be66928aU, 0x3b372c8abdeed8fdU, 0x3db9e1333dcd954fU,
  0xbe460439bda7a8a0U, 0xbe55723f3ce978f1U, 0xbe5414f5be1699bbU, 0x3e651a503ee579faU,
  0xbd183bee3deaa326U, 0xbdc922293d1eecc6U, 0x3e9d05033e0cea2fU, 0x3daf3aa2bd34aba3U,
  0xbda821863d07263dU, 0x3d7c3dbebd02aec1U, 0x3ce6f4cc3c746fa8U, 0xbd020c1e3e05e681U,
  0x3db1a8efbdd098b9U, 0xbe2c33f9bd8cfb87U, 0xbddd4a74bdcd4e98U, 0xbd94e6e73dd60ea3U,
  0x3bda9a2d3e4853d6U, 0xbdfdf3023d8c7ea5U, 0x3d4288463d60c604U, 0xbc8995963bfd9ebaU,
  0xbd2857d7be1ebe95U, 0x3e1a6810bd8e011aU, 0x3ccaabcdbe3aa651U, 0x3ca7d94c3dd884fdU,
  0x3d9eec30bd98d58aU, 0xbdd08b06bd1c5f69U, 0x3d93f212bdd4f93fU, 0x3d2949a23d0c1755U,
  0x3e442d573da84defU, 0x3e2d8ab7bcd836a5U, 0x3e8d97bb3e605f1bU, 0x3e90c4033d82231cU,
  0xbd59397a3ed6d09cU, 0x3d87a25bbe6942b6U, 0xbe0ece51be737057U, 0x3dd2d88a3b93bfd5U,
  0xbe2da848bd9fb9c9U, 0xbe66ad0e3d4eb4b3U, 0xbe7a7952be40291aU, 0x3eaa35993e77e51dU,
  0x3cea34353e6e9d35U, 0x3e116f52bde4b4e9U, 0xbdae4fa33cfaa172U, 0xbd0d2e8cbdce9434U,
  0x3d9525c4bdd85fbaU, 0xbe53484d3dd8e48bU, 0x3e2f6972bd229e36U, 0x3dece64ebe5d8366U,
  0xbd5556b2be2888e8U, 0x3c87f8e2bcae9cf8U, 0x3dc889343dfb9d1dU, 0x3e1704e3bcc77a1bU,
  0x3cd409b43ce98140U, 0xbe4bc37fbd73e875U, 0x3c574309bd537b96U, 0x3bb6b0633db2333cU,
  0xbd2e4686bd84c880U, 0xbe4a05f03d9c91e3U, 0x3eb6bbe6bdf4206aU, 0x3da04d79be1d51f5U,
  0xbda23bc73d00e762U, 0x3c9bfa963df0b4e4U, 0x3d6c1cd93de3ea75U, 0xbe713b853d2038baU,
  0xbe20c96f3e87d99bU, 0xbe8f3a6f3b307e5dU, 0xbdff7f19bbe7b0bfU, 0x3d26139ebdf3ed45U,
  0xbdb5e0ddbe8666a3U, 0xbd00aef3bd38324cU, 0x3eaf0b66bddce814U, 0x3e43d31dbbe13323U,
  0xbda9641bbda68dceU, 0xbd63eb8bbd5616a9U, 0x3d6864d4bcbbbb51U, 0xbd26bcb1bb11b45aU,
  0x3c3d7bb23e183028U, 0xbd0dd3a3bd6d37c6U, 0xbd9ec78ebdb524dfU, 0xbd5eff2b3ccc11bdU,
  0xbd01d6a6be70dbe3U, 0xbe97f9a13cc1ff97U, 0x3e9200a6bdc67e02U, 0x3d85f2a7be922de4U,
  0xbd9ee371bd214213U, 0xbdccc8173b9365bbU, 0xbd12d8a83dbb6d4cU, 0x3e6fedb83d64c3e7U,
  0x3dd358f33b89d91fU, 0xbe10bf6abd532c0aU, 0x3eaf34dcbdbec5c4U, 0x3dc0ceafbe107adaU,
  0xbd9bb4ecbe1de93fU, 0xbe13c294bc817f8fU, 0x3d6735a3bdbd63bfU, 0x3eb802d9be470bc9U,
  0xbe14c8dfbd72e04aU, 0xbe35d9a03c72c493U, 0xbda0da58bb90d568U, 0xbdcbc0923e9121feU,
  0xbd11fb813c5ebae1U, 0xbeed182d3db35315U, 0xbd3b79d1be100c2bU, 0xbd0fa23bbe019ed3U,
  0xbe0e5ffabeae3c96U, 0xbe076b553d867fa4U, 0x3e264f02be099d99U, 0x3ea78ad03db7d5c8U,
  0xbcb3d0af3c2b7844U, 0xbe34969f3cd0f771U, 0x3d93f9b1bceb5d3bU, 0x3cf486da3daf9ffbU,
  0x3cddbd6d3d1a6114U, 0xbdd78ce9bcf89b9cU, 0x3c8ec492be1c9971U, 0xbaf2ce2ebd96d6bbU,
  0xbda8cc68beff9f4bU, 0xbe6f0c743da3a503U, 0x3ea2e3d7bce6a413U, 0x3d09e47abe74bd7fU,
  0xbe3e621fbd92b756U, 0xbd55ecfd3e134abaU, 0xbbb61a2e3dde0f48U, 0x3b9d9f94bde95674U,
  0x3d8cfbe13da56478U, 0xba08cd41bcf602f8U, 0x3e6445843ca84e91U, 0xbcbeb019bc972827U,
  0xbc713555be8c27abU, 0xbe11fe2c3ce6b996U, 0x3ecbee6cbd9ac3f5U, 0x3d60c681be6bb979U,
  0xbe5ef7623be4cadbU, 0xbd7231523d20e579U, 0x3d1cd3673e110d92U, 0xbd25c33d3d8df338U,
  0xbdac64183dcca740U, 0xbe8a43b83e309004U, 0x3d8dc52eb92d73edU, 0xbdb860ebbe6dab13U,
  0xbe375bbebed8a7feU, 0xbd9bb3f23de6b45aU, 0x3ebf14d5bd9a0696U, 0x3e4a2178bd7bb015U,
  0xbd4c50e53d362162U, 0xbc42d1cdbc7693bfU, 0x3dc2dd003c949506U, 0xbdb2a55e3c940380U,
  0xbd159debbe12e56cU, 0xbdc51a843d9a40b7U, 0x3e01f58cbe004cb4U, 0xbc582d8d3d906510U,
  0xbd43f21f3dbc8fb5U, 0x3e40e23fbd7b90ceU, 0xbe64077a3cc50c8fU, 0xbe1797f03e1d5416U,
  0xbbd666763def95f1U, 0x3af0bfba3d8100f8U, 0xbd9970a4be0d6fecU, 0xbd7e4790bc0ddaa2U,
  0xbdc5ce60bb6bf381U, 0x3e368c133d97077bU, 0xbd8879bd3db35c5cU, 0xbc8f688fbda5f608U,
  0x3d41546a3ccb2831U, 0x3db30b1bbd810950U, 0xbe8585bd3deec7e6U, 0xbe0ef0223e196465U,
  0x3d9b0efa3d953610U, 0x3d5bd0e2bbe09945U, 0xbd81ad51bd38c4bfU, 0x3e0cccc6bd308b85U,
  0x3daa3cb3bddf812cU, 0x3e972414bd3db119U, 0x3c07f643bd36b38cU, 0x3d69ed483df01e58U,
  0x3d45dc783e7273edU, 0x3d17008dbc6a32c1U, 0xbdda2bf03dfc83ecU, 0xbea08f1dbce16a38U,
  0x3d94f18c3d8089ffU, 0x3bd3d3923db731ebU, 0x39c944683db48647U, 0x3c929fedbd6a942cU,
  0x3da62c2cbdc3220dU, 0x3dd7b3313da4f05fU, 0xbbabc4cf3d384125U, 0x3d815d5a3d1da452U,
  0x3b5148c03e0770e6U, 0x3e7c703fbd1d9e6aU, 0xbdf059d73e029531U, 0xbe0a18c73e99c148U,
  0x3dcc8d7e3d874e6fU, 0x3946f7c53b0bd616U, 0x3d2624bfbd88b5ebU, 0xbe46b9efbcc06123U,
  0xbe0b61b4bdf14381U, 0x3d79b50b3d1b11e4U, 0xbe7fda873d9b4686U, 0xbdfcc8f33dc4be57U,
  0x3ddf3f4b3e0e6125U, 0x3d78af8f3b474faaU, 0xbe046ad73da3c8a6U, 0xbe9683b43e07f48aU,
  0x3de22dde3c942ad8U, 0x3e091e413cd96992U, 0x3da12accbcbdedfeU, 0x3db7c12dbe3118d1U,
  0xbd484d623c578942U, 0x3e8be264bda058f2U, 0xbb957fc93d9d01ebU, 0xbdaf23313e2a15fcU,
  0x3dcbdd3f3eb1d957U, 0x3e28baa4bd1f19d2U, 0xbe0e4ba53db6f709U, 0xbe44d2c5bd7b9464U,
  0x3cc444f7bd91c68eU, 0x3df8b7eabd03466cU, 0xbd10ea393c533a83U, 0xbd4365e03ba584eeU,
  0x3d103273bdccc5f6U, 0x3ca0f3903d4bcc13U, 0x3c212ff13e52aa01U, 0x3c52de493d53f774U,
  0x3d6d92ab3ec23819U, 0x3e240bed3cb2fef7U, 0xbec3e9423d47dbe2U, 0x3ba6ecf73e210cefU,
  0x3df6af0f3dc430d2U, 0xba946d48bdf91a7fU, 0xbce945c6be37cb32U, 0xbc5aa8a93df18693U,
  0xbc6ae57abe2055d5U, 0x3ce74eeabc26887aU, 0xbe7cf94e3d56d215U, 0x3aa9d59c3c9ceb24U,
  0x3cdf67b83e5242a0U, 0x3dd93fb9bb135e86U, 0xbe45aee93d905159U, 0xbe4c0a6d3e45f3e8U,
  0x3e062028bd7a9551U, 0x3d467d6a3c7ad045U, 0x3c45d663bd956001U, 0xbc9d7ee5bda05f10U,
  0x3d88e500bdc8d4b7U, 0x3e7f1865be028975U, 0xbd8e5f393b778ccaU, 0x3d664c6b3e010668U,
  0x3e16fbd83eb9972eU, 0x3c2f969ebd6f9ed4U, 0xbec4be6f3dd60daeU, 0xbe0598cd3c8c8519U,
  0x3d27cdffbd6dfdd5U, 0x3daad270ba368622U, 0xbdbba1babca20348U, 0x3df528643c4c8e2bU,
  0x3ad1562fbc8adfebU, 0x3cc75a2b3cf8618dU, 0xbd6d6b33bde42849U, 0xbd9fd7183da05407U,
  0xbb8729313e1c7640U, 0x3db04922bc69c60bU, 0xbe6635f1bd18c5d9U, 0x3da5361d3d02ccc7U,
  0xbdb066f73da9f5b1U, 0x3d999feb3db87c70U, 0xbb9efc8dbcedc519U, 0xbcea9540be3e2761U,
  0xbc8cb724bdfbb810U, 0x3e752b463da94047U, 0xbd2c6f17bd570baeU, 0xbccc0d76b9ee2458U,
  0x3d210a31bd5b8dd2U, 0xbd2d34b73cc331eeU, 0xbe27523b3e023a4cU, 0xbd8698c3bb46019cU,
  0x3d66ff563ddd845dU, 0x3d9012f83cd9e1f1U, 0xbd2b06aa3cd99e11U, 0x3d89ef82be3630b8U,
  0xbdead741be12bc03U, 0xbb26fd3dbd850c07U, 0xbea6fb0cbe3f8d55U, 0xbeb50938bbd41543U,
  0x3e1077f13e2074c1U, 0xbdd46d633d92cd02U, 0xbda5dbf43e5d75bcU, 0xbd81352dbd9c61efU,
  0x3e4fc5ee3db9707dU, 0x3ded67073cee97c6U, 0x3dbbb58a3dc84a70U, 0xbe157602be89e638U,
  0x3dbc8d5dbe841c32U, 0x3e1f18e73ca4a610U, 0xbe1ef8b5bd48c552U, 0xbe1606753dcf802cU,
  0x3de617343dda362dU, 0x3df56ad43d8abff6U, 0xbe13b8f03ca4471dU, 0xbdd37dc83dac54d7U,
  0xbd2a6e623e0eefacU, 0x3d80b50a3d6bf89bU, 0x3da57a6f3d619e45U, 0xbd4f851fbddc853bU,
  0xbb9eb120be2400b1U, 0x3e192a543d6234caU, 0xbe87afb8bd42a204U, 0xbe5d3f27bb48c936U,
  0x3dabbe443e7f9d9dU, 0xbd194cef3dc2f210U, 0xbd74b9f63dcd609dU, 0xbe0c139b3c5498b5U,
  0x3d240f5c3d239406U, 0x3dda1cc33dccb332U, 0x3dc6e06d3d4ec7f2U, 0x3c47ef75be3f3253U,
  0xbd1e9ed4bd28b7adU, 0x3e29f169be426e5eU, 0xbebdffb1be10f12aU, 0xbed1d0173b43c8c3U,
  0x3e1643003e870ba0U, 0xbcac7d3a3e4d19ecU, 0xbd4b691e3ded5880U, 0xbe09dcb6bdd3213bU,
  0x3e2cd177bb4971caU, 0x3e1425dbbd69816bU, 0x3e6191a73dc59514U, 0xbd5dc05fbe6b14eaU,
  0x3deabc6ebe788ed8U, 0x3e1579f5bcbd6899U, 0xbe489defbdcc445cU, 0xbe022d4a3cb31b5cU,
  0x3de8eb113e751d72U, 0x3dcc0b903daab026U, 0xbe790527bd9d9cdbU, 0x3ddf058c3d9fb06dU,
  0xbc74f8ee3de669a3U, 0x3b702f29ba4b9f05U, 0x3df37146bb1b79daU, 0x3e2c8687bcc08092U,
  0x3c499df8be6b260dU, 0x3dc1f5b6bd745cbcU, 0xbdc7dd7dbdee644fU, 0xbdc497863ce4bdebU,
  0x3d65f4253e746891U, 0xbd254faf3de1d473U, 0xbdd034aa3e2fe5d1U, 0xbe20223a3d75519aU,
  0xbd17f3803cd9346aU, 0x3d1ceede3da79a49U, 0x3d15e7ea3d6ac22aU, 0xbd2921dbbe260bcaU,
  0xbda41c003d808bfcU, 0x3de486a3bdaf1ecfU, 0xbe7e377bbe15e439U, 0xbe9729973d9fab24U,
  0x3de10d853e1edd93U, 0xbd3e4e753df2a456U, 0x3c228c133e26c2ceU, 0xbe5dd67cbd13d259U,
  0x3e1e6ec93c1c8b57U, 0x3e2d338abc51b858U, 0x3e1492bd3e14e539U, 0xbdeebc8bbe4fd5d4U,
  0xbb8568b9bdaa4ef8U, 0x3d8e3dab3d034a6aU, 0xbdb405f0be0556c1U, 0xbcb6cb983dcf952dU,
  0xbd08672e3db5eb19U, 0x3dd6abf9bcea4b48U, 0xbdb5fc46bce0ba62U, 0x3d1b47983bf856b6U,
  0xbde3ea053d947be6U, 0x3d2deddd3d86268eU, 0x3b806a1e3cd198a8U, 0xbdc32c3fbe6267e1U,
  0xbb367509bcf953d5U, 0x3e80726c3dd1f3b4U, 0xbde26dd93c1cb550U, 0xbd83e32ebcd6a77fU,
  0x3d634d2bbd565ceaU, 0xbd200c6f3d0b08dcU, 0xbddd3aef3df76fdfU, 0x3c8378febc58b149U,
  0x3c5438983dc45359U, 0x3d187fd83d0b0d29U, 0xbc30348ebc4e7b4eU, 0x3e282eebbdaae0b0U,
  0xbd8720e0be2ff155U, 0x3cd027f7bd4af71fU, 0xbeb745a0be2b1ac4U, 0xbebb4dbabbedd7d0U,
  0x3e224ccd3e107899U, 0xbdfb1ae53dc1ed82U, 0xbd3f8e263e66dc6eU, 0xbe0e0298bdd2f23eU,
  0x3e6381523daa734eU, 0x3e01c5143d4ba2adU, 0x3dc77ce93ddddb14U, 0xbde3d743be9ee8a5U,
  0x3d35b547bdcd6c48U, 0x3e26cd3ebc3b36caU, 0xbe5f0e74bcbb12b4U, 0xbe19e9c03dd87342U,
  0x3dda14d33d5ad16aU, 0x3ddab19f3d1656d5U, 0xbe1b09f0bc35a5daU, 0xbe07d2aa3d97cf54U,
  0xbd436e313e29623aU, 0x3df880ac3d536bcdU, 0x3da3dbc53d3abd82U, 0xbda760ecbd46e53aU,
  0xbcfa2138bdec00f9U, 0x3dc62f213d7b4289U, 0xbe63994fbd1b0a0aU, 0xbe717ba93cd41336U,
  0x3e0394203e80389eU, 0xbc571e4a3d484501U, 0xbe3d41be3dafa5e3U, 0xbded42f2bd8fff41U,
  0x3d1f95093d9006efU, 0x3d09070d3d84556fU, 0x3d9f89bc3d95a3eaU, 0x3d08a21ebe4b5bddU,
  0xbd2640b2bd5874c8U, 0x3e498e2cbe4fd134U, 0xbeca2ccdbe1e304fU, 0xbeb9de8c3d15ba13U,
  0x3e28c3523e8e4954U, 0x3c6001bf3e4ac893U, 0xbdafeca03dfd06faU, 0xbe5b4f41bdcfac7dU,
  0x3e4a545d3ab27d3fU, 0x3e176a01bd38a3deU, 0x3e5134683e0fb97dU, 0xbda902eabe99f31aU,
  0x3d5ab23cbdd98d66U, 0x3df4b60ebc97a655U, 0xbe31e3e6bd97c7d1U, 0xbe0c84663d137b34U,
  0x3da4911b3ea9a479U, 0x3da9e5fe3c710761U, 0xbe8d2044bd495b1aU, 0x3dbd794b3cda4ed9U,
  0xbd4142033e3791fbU, 0x3d90f3bfbc09d769U, 0x3ddf07423c821c4bU, 0x3db84f21bd21dbddU,
  0xbd652b3fbe2acba7U, 0x3dd42694bb3f4a54U, 0xbe76d6a0be05aa26U, 0xbdd50b0ebcfefeb2U,
  0x3da7f1c23e9064adU, 0xbd6f224d3e0e2075U, 0xbe6c9c013e416cb8U, 0xbd53bdaf3d7b54c3U,
  0xbc458e5f3d5a1d54U, 0x3dacca883d0ca054U, 0xbc196f113c2eff5aU, 0xbbaa552ebe1e5b5cU,
  0xbdaa073a3d54fc4bU, 0x3dd536dcbd89670aU, 0xbeb4bfc1be1dd71aU, 0xbe91324f3dda14c0U,
  0x3de3c3603e116a19U, 0xbce3fa803e03467dU, 0xbd8c8f123e485835U, 0xbe82bcd7bd63b901U,
  0x3e29c0c63d6eb67fU, 0x3e16b37abb974a4dU, 0x3dfeaebf3e3694a2U, 0xbdda0370be5b2ef7U,
  0x3d1567363e2d95bfU, 0x3e5f0d31bdee75f8U, 0xbe8538023e8ba25cU, 0x3de6167cbe3b83d6U,
  0xbda0fd23be19776cU, 0x3ce626d1be3f1c3eU, 0x3e13d5d7bd9aa6fcU, 0xbe197fecbdc12b05U,
  0xbbbade303d960c0eU, 0xbce019a1be491977U, 0xbd5cb2c93d2a1d87U, 0x3da1ef963e559682U,
  0x3e87d6573db1e229U, 0x3edb1101beb355ffU, 0xbe86966cbe181f74U, 0xbe66d6bebe381f1eU,
  0xbe4dd9edbe27e398U, 0xbe8f04f8bd2a7c2bU, 0x3c55cd1e3dfe5db8U, 0xbc8d3309be050af0U,
  0x3dbc902fbd02e8e8U, 0x3eb32383bde03687U, 0x3d9f44003e96916dU, 0xbe08af203e93890eU,
  0xbd2788063e148194U, 0xbea83332be96ef8dU, 0xbc4b68dc3e2499fcU, 0x3e7a9ba6be57ac6dU,
  0x3dc7e5ccbf0fda08U, 0x3baf63a0bb0c0c5aU, 0x3e6794c53e09ff27U, 0xbb01f214be9bafa7U,
  0xbd98d3433d282f57U, 0x3e82bca7be02f015U, 0xbca81da3bde2e817U, 0xbd3566873d92f267U,
  0xbd344944bda1e54dU, 0xbe1efc72bd5bebfcU, 0xbea82f883da46167U, 0x3de820bdbe3f170bU,
  0xbcf328d7bcf46a2bU, 0x3e01762f3d9b73fbU, 0x3cd9d746be02f25bU, 0xbb2e270fbe5b199cU,
  0x3dae3027be44be60U, 0x3e07248dbe0c8481U, 0xbd816a9fbd733b00U, 0xbd8f16ac3deeb514U,
  0x3df35bba3e5af5efU, 0x3e0976d1bd8f3e1dU, 0xbec9e3df3cdffb33U, 0xbdeeda843d0b2567U,
  0xbe0acfd6bece2662U, 0xbdab6665be0ab6ecU, 0x3ce8f6213e085376U, 0x3d1f3f6fbd9c3937U,
  0xbe779161bb9b6c16U, 0x3da4a980bdb87454U, 0xbdf17345bd808558U, 0x3d9a255fbc0c13e5U,
  0xbe5703d03e127b33U, 0xbe8672aa3cdc996cU, 0xbe04d0ebbe1a1cfbU, 0x3e1f327fbe7b60b9U,
  0x3ce2ed45bf3d4f77U, 0xbd85c0c93d005205U, 0x3df051483cea9a2eU, 0x3b1c30a0bd131beeU,
  0x3ec150d83e6f9dc2U, 0x3ea8cc8a3d533203U, 0x3d8d6e46bda340ffU, 0xbe1aed86bdf9caf9U,
  0xbe08ba7d3dd61f3aU, 0x3e81ea033e1c3bc9U, 0xbdcea5993e3e5230U, 0xbd4e09183d239065U,
  0x3d0d20dd3d941073U, 0x3d79bd6b3caef7d6U, 0x3d9d85323c26873cU, 0xbe5fec70bd7de05fU,
  0xbdace9d5bdb581f2U, 0x3e813a50beb6ff8bU, 0x3d100f283e1ed506U, 0xbe78292fbe5237cbU,
  0x3e53006b3dfff934U, 0xbe3c19d5be1c84bdU, 0xbe009daa3d42ac42U, 0x3d17985a3d6d9fccU,
  0xbea7ee4abef31c20U, 0x3d899f9c3d53755dU, 0x3dba1f933e4e17aaU, 0x3baca019beaf419bU,
  0x3da4ed14bdabcff0U, 0x3e665dcfbe0f17f7U, 0xbd7961e5be6dabb3U, 0xbe0113883e88ec7cU,
  0xbe296efbbe0ee28dU, 0xbc93955abe00963dU, 0xbf06ae24be992840U, 0x3e3671d3beaa50a6U,
  0xbe1e4f32bf2a97dcU, 0xbc804ac83bdc0f90U, 0x3c65de1dbd7826c0U, 0x3d94a22abe616b94U,
  0xbe5a9a56bd545e21U, 0xbcca81acbe403077U, 0xbdac8fb9be66b9c4U, 0xbd930fb53e0a0204U,
  0xbda817a53d801cb3U, 0x3d8a5fe1bc82bfb1U, 0x3e1bfb1e3d06b468U, 0x3e0ea7293ca373bfU,
  0xbe3083963e58f2e3U, 0x3df4f4cfbe0ac40cU, 0x3e5c9fd23d7508b6U, 0xbc6362bf3e131a5aU,
  0x3dcd1e3c3c80574aU, 0xbd2b198fbdc6cfc2U, 0xbdb78a3fbe3e3c91U, 0xbd21d3c83e3a838fU,
  0xbd7f1e5b3db0c9edU, 0x3ebc7281bd9c53f0U, 0x3e1367593d398589U, 0x3de4025bbd97c2a7U,
  0xbdedd1113e2a333bU, 0x3de10d92bdda31d2U, 0x3c98e3193da0a58aU, 0x3a81b8d43dae1bd1U,
  0x3deb6376bdeecc79U, 0x3e0db269be0d6224U, 0xbdfdf9eabdba9c19U, 0x3db0cc533e09d5a9U,
  0xbbe9124c3d91f415U, 0x3eafa2fbbdd4cae2U, 0x3e31663d3d7a88d5U, 0x3e2559243d3915ccU,
  0xbd769ca43eb2535cU, 0xbc935482bdfd56d3U, 0x3da86fe63da49021U, 0xbd2e1b99ba44bb34U,
  0x3d86a0e2bd548f24U, 0x3e000068bd9ceac5U, 0xbd41addebc9c5e40U, 0x3c09661e3e1e90dbU,
  0xbdaee44239abc906U, 0x3e31f9d7bdb94a32U, 0x3e2a1c613dfd396fU, 0x3e5dfbb9bd104df7U,
  0xbd376bc33e95af85U, 0x3e515070bd55c4fbU, 0x3e84407e3d6ed384U, 0x3dd554a53e30772eU,
  0x3de70b91be08c2eaU, 0x3d396ca0be38ab71U, 0xbdd363f9bdcb106aU, 0xbda2c43e3e2ce198U,
  0xbe0436303e75871cU, 0x3e8b7502bd85d644U, 0xbe62fb2c3d5a7f70U, 0x3dd827cb3c9909aaU,
  0xbd4ee63b3eb61350U, 0x3e31283ebdc1ba51U, 0x3e3cc02cbc89751bU, 0xbd7335083dbbc8c0U,
  0x3da9402bbe1fb69dU, 0x3e616a85be2f77d6U, 0xbcd6538fbd523d26U, 0x3e091e753cfe2a43U,
  0xbd99313d3e30bd4bU, 0x3ec27699bddb55cfU, 0x3e3d132c3dcccc41U, 0x3e298f4d3ca38d64U,
  0x3be1c50d3eea73f9U, 0x3d9616f6bdf395e4U, 0x3e265d423d80e362U, 0xbd5ee358bd00b963U,
  0x39e376d9be0a294fU, 0x3e428accbe07b4f6U, 0xbe29fdc9bdd496ecU, 0xbd478f443db68f53U,
  0xbd40d793bc4882dfU, 0x3d215c91bd9e9933U, 0x3e0692023e10c26eU, 0x3e46fa9abcd56b85U,
  0xbd10f76c3f03553fU, 0x3e371a05bdeb894aU, 0xbc1b314c3d5d929dU, 0x3e32b59f3d6da114U,
  0x3e16e452bd50a629U, 0x3df74131be80304aU, 0xbde70fcfbe8373b5U, 0x3d4b782f3e269516U,
  0x3c2115373e10de06U, 0x3d8c2432be428682U, 0xbe1b52243d008a54U, 0x3e3469593b7ea246U,
  0xbdd0ae123ea61134U, 0x3da7f79abe04caf1U, 0x3e186de93d8f9b87U, 0xbcf771ae3dae54bfU,
  0x3e576e2bbe142129U, 0x3dfeaa2dbe2e2ee5U, 0xbe01c8b4be0a6bf6U, 0x3ca158c8bd9e733dU,
  0x3d7ea168bc803df9U, 0x3e8f707dbe82b06dU, 0x3e235d7a3cdfee23U, 0x3e7ae5883da2bf7dU,
  0xbb0ddb523eecf0c7U, 0xbc8c59fbbe3dfd37U, 0xbe2c6c4d3d20ad26U, 0xbca702aabc3e2d5cU,
  0xbcbc4aa6be657652U, 0x3d2e0e0ebde39c83U, 0xbe68e401be33f8faU, 0x3de06e573cb53bf0U,
  0x3d329608bdeac07bU, 0xbb26aed83d6eed77U, 0xbe0940a9bcfbcd09U, 0xbc9a212e3da4a9faU,
  0x3c3bb1f5bdc7376dU, 0xbd08cf893d088a37U, 0xbe06131bbce3a84aU, 0x3bbcce6abdaef319U,
  0xbd9c0a163d813064U, 0x3dd23de53db6bc1aU, 0x3c697fa1bbc937f6U, 0xbd8adb53be36993fU,
  0x3d86a2fdbdb7bff2U, 0x3dd8638dbbe2d7a4U, 0xbda438a3bdc191e0U, 0xbd37b8d93da0a483U,
  0x3db24d0cbe70f774U, 0xbe082cd93cfa6835U, 0xbe46705e3db5c879U, 0xbd31d7babd1d3b6bU,
  0x3be273653e02e3ceU, 0xbc3cf3d53d50d1afU, 0x3bbc1dde3dee9c37U, 0x3c7e4d5fbdb24bc9U,
  0xbe1c4639bdcfda53U, 0xbe8d8aeb3c634856U, 0xbeba3f38be1ed8c2U, 0xbe9a8974bdd5c8a1U,
  0x3dffc2f5be7daccaU, 0xbddf35c83e135f14U, 0xbdad45083e3ba76dU, 0xbdcfe00abdb4ff96U,
  0x3e30b77b3e3a597dU, 0x3dbbd0ec3d5e0643U, 0x3d7aaaec3d51df92U, 0xbe50049bbeb2624eU,
  0x3bfbb463be0d9333U, 0x3d9f92653cb8993eU, 0xbe8e1798bd64a6e7U, 0xbe23fdb83da8d6a9U,
  0x3de980c4be8b2f69U, 0xbd5c7e433d8ffa5fU, 0xbe74d00ebce1d6a1U, 0xbddb28f5bd7593c4U,
  0xbdc5cf903e1c159cU, 0x3df10d4e3defb1c0U, 0x3d9e495f3dd4b8baU, 0x3d27d68fbe1d49f6U,
  0x3d01d501bda57ab8U, 0x3cedaa283c80a481U, 0xbda34136bd980153U, 0xbe7e718ebd810ecdU,
  0x3dc36300bd90aee4U, 0xbd50e5193d49fde7U, 0xbe03b5473dba79c3U, 0xbddf5796bdaffb65U,
  0xbcc5c3c23d8c7ec8U, 0xb92f8b183e1da395U, 0x3d047f673cfc5f94U, 0xbc91064abd16bb7bU,
  0xbd5fbf6fbe397528U, 0xbe4afc7ebddeedb1U, 0xbec6a6aabe291886U, 0xbeb48f5fbdc7eaa8U,
  0x3dd33e41be6673c9U, 0xbd84f4f73e7f0136U, 0x3d39ae6b3d968568U, 0xbd331f84bdee2285U,
  0x3e1f623a3d9cef07U, 0x3da6ef003ca1eb20U, 0x3e5895b33dedc178U, 0xbe300c88bedcefffU,
  0x3df4511fbe37964fU, 0x3bb8c855bc19a062U, 0xbe4a070bbde66d5cU, 0xbe0e69143d5ba2a4U,
  0x3d9f5b55be10d2c9U, 0xbdb42e573d8263deU, 0xbd09de1bbc268675U, 0x3d0706e9bd842213U,
  0xbd95c3a03df54097U, 0xbbb1868f3db227b6U, 0x3dcc99993db38c8eU, 0x3daaf267bd86a4baU,
  0x392fba02be6ebee1U, 0x3de2d7533ced649bU, 0x3c921b2dbdd36bacU, 0xbd198777bbed0b2dU,
  0x3d99b82b3d43f385U, 0xbdd249703e14959dU, 0xbdf39dfe3e1ffec5U, 0xbd7a8a75bd2c0e14U,
  0xbdd63f893dc1773cU, 0xbc232a963d96beb9U, 0xbbf178083de08de6U, 0xbd071602bd380300U,
  0xbe22463bbd8591caU, 0xbe089ea13d2120f8U, 0xbe9df404be387299U, 0xbec35eb9bc512ff0U,
  0x3dab57cdbee6bbb7U, 0xbda6c3423e75157cU, 0xbacac90a3e47b2d6U, 0xbdb2d7bebd447af5U,
  0x3e0d36303e43b12dU, 0x3e41f27f3c5c48bdU, 0x3e69c90a3e5c787bU, 0xbea13a85be7fd020U,
  0x3df2e375bd640f0bU, 0xbdad7a103dcf85afU, 0x3f020bb5be8f85f0U, 0xbd00bfc43e355327U,
  0x3d3eea323ecf647aU, 0xbd34c9a33e45c8d9U, 0xbe4d684a3cc4ad03U, 0x3e32b0c93d180f65U,
  0x3ca02a37bd69778fU, 0x3d324cf03eb073e8U, 0xb9684cd83d0f6632U, 0xbe12a92cbecc6dcdU,
  0xbe177beabe6e3425U, 0xbe02cfc03ea37d20U, 0x3ec15d263ca6a49fU, 0x3e0d92bd3eb1e2a7U,
  0x3e8055e73d8ac582U, 0x3e50bb3b3cc2e1feU, 0x3d9c6ec13c49b34dU, 0x3de8a24c3cf4288eU,
  0xbe26612c3be1950bU, 0xbef53c603cea3349U, 0x3cc693bebea83656U, 0xbda36437be974704U,
  0xbe324cdebe9340bbU, 0x3e8ae8943ebbc9ffU, 0xbd258392beaa79b0U, 0xbedde3e93e38c109U,
  0xbd1f21b93efdc7d2U, 0xbe487a9a3dc4c7cfU, 0xbe5f30b7bcc08df9U, 0xbd8eb7e63e85f254U,
  0x3d849ffcbd9312edU, 0xbe61fbab3cc27cc1U, 0x3e4606a03e0aca74U, 0xbd840c6ebe6a0958U,
  0xbbdbac71bc426472U, 0x3dce12533e287467U, 0x3e971b86be811a2cU, 0xbd3dd0363df1305bU,
  0x3e84bae33da80cd2U, 0xbe12b5a4be5b44f0U, 0xbe2568b13e29a047U, 0x3c62fa843dfa9531U,
  0xbe881a293e922ae7U, 0xbe3cdbe73ea55633U, 0x3cde38a43dc40d0dU, 0x3d190783be760276U,
  0xbdcc6f83bcbd0c25U, 0xbd3e6f8d3e50f450U, 0x3ea41f43be862369U, 0x3e158d1fbd5dddf3U,
  0x3e5d56173f664e2eU, 0x3e8d92ee3e5e80ffU, 0xbe0c2e20bd418c58U, 0x3dc4f0ee3e00592cU,
  0x3d84ca9c3ced3581U, 0xbc09ae1a3e2dfa56U, 0x3ceb5f933ccd0636U, 0x3d21a72ebe77f853U,
  0x3d1e3c0c3ddb94e1U, 0x3ea2ac70bdec7c7fU, 0xbe1384b63e11bcdbU, 0xbeac96a93e8f0e98U,
  0x3d02a2583f2f9965U, 0xbd00bc0f3da14623U, 0xbbd3b07d3dcbec37U, 0x3d21ae803d7f44fdU,
  0xbe7cc2cbbd43375bU, 0xbe3bba57be4581baU, 0x3d8ab5b73dee5748U, 0xbd6fe6353da35ad1U,
  0x3d504c44bc7267b2U, 0xbe98b541bdb69344U, 0x3e029f82be0fccb6U, 0x3c3d51d7bd61d3e8U,
  0x3e1197ffbd17f513U, 0xbe447ddd3c1436daU, 0xbe6a2c763cbe910dU, 0x3e2efb373b1446b4U,
  0x3df000333e6fa798U, 0xbde66a043f08af5eU, 0xbd87d62cbdc1bda0U, 0x3e8c01343e273941U,
  0xbe15066cbe863b69U, 0x3eeb49433e1533b1U, 0x3ca30fa9be41ac8bU, 0xbe0908a9bdfed8afU,
  0x3ee34b4a3f47f5ceU, 0xbe63b82c3e345b9cU, 0xbd5394aebd81f112U, 0xbc2df02d3e80cf2cU,
  0xbd3998833ec2979dU, 0xbe670b6a3e274b82U, 0x3d7446f53dc6c796U, 0x3e930168be3c5117U,
  0x3e2011f43da503e2U, 0x3daccce6ba3b342bU, 0x3ecd57003ea49978U, 0xbea013463e710755U,
  0x3e04134e3f1c99adU, 0xbcb4259d3ded8a7dU, 0xbd8398733e334501U, 0xbe2adbf5bcbe717cU,
  0x3e6c64a43d842aa0U, 0x3e9d13f73e196433U, 0x3e7a47013ddcd6c8U, 0xbde3e976be488a07U,
  0xbd5eda553e486090U, 0x3df143a2bd5742ccU, 0xbdcb1abc3d2eef19U, 0x3d99489c3dce2080U,
  0xbd825c913c90dc6fU, 0x3d83480cbda6da07U, 0xbbe50e33bd23f3d5U, 0x3e1d4156be192610U,
  0x3d0265103a2e274eU, 0x3e19f0d9bd4dcecfU, 0xbd26c5423d3bdb90U, 0xbd8e0641bd126e3cU,
  0x3b75a0d4bdc12632U, 0x3e8c442cbdba97a7U, 0x3d3ebfaebdced12cU, 0x3d5fc9a53d8e4e9eU,
  0xbd4d00afbe538aa9U, 0xbdf1f7d0bbcd7f76U, 0xbd64fddb3e64b444U, 0x3d4fb70abde3a4e8U,
  0x3dc122183d9810adU, 0x3e4bb27bbc96c5a1U, 0xbd5191223db28ec0U, 0x3cb633383e00de2aU,
  0xbe927d3dbcccfbd3U, 0xbe86ab55be017664U, 0xbe91f64abe329cecU, 0xbe51d75bbe606dedU,
  0x3c485ec4bdc16a69U, 0xbe19c6823dde9926U, 0x3c18d9833e926a12U, 0xbcffd8b3bdeac483U,
  0x3e994f563de0c48eU, 0x3e266057bd92cedcU, 0x3ce6bb873d78f044U, 0xbe89a24fbe840bb6U,
  0xbd851ddc3ca3eca2U, 0x3df182e2bd4e7784U, 0xbe84a11c3b54d96dU, 0xbc8c82f53d754b5aU,
  0x3d142236bdc08b1cU, 0x3cb148d63c8cd512U, 0x3dacfad3bdad8a95U, 0x3d4d0f3abe2ee700U,
  0x3c0a99593d10002bU, 0x3e8d8e26bd002a6aU, 0xbd75123e3db18ca4U, 0x3d91db1abc164a55U,
  0xbc99a9563db4af18U, 0x3e4720f0be1a8b84U, 0xbd377cefbd82f90fU, 0xbe0a73bcbdb37582U,
  0x3da4ea923e10cb00U, 0xbdaa6067bcf336aeU, 0x3d611cd23dac1da3U, 0x3d6bb13dbe12765dU,
  0x3c70a800bd91c05fU, 0x3e42daa73ce3cbe1U, 0xbd916faa3d4cb410U, 0x3c64c05d3db0a835U,
  0xbe5dd532bd7886e5U, 0xbdc6f7f1be366483U, 0xbec33c70be5fbdaeU, 0xbe7886bfbe35b424U,
  0x3cf1d1b5bdb632d3U, 0xbdee04b53e89d027U, 0x3e6d42183dc9e229U, 0xbd83cae1be1d3817U,
  0x3e982f3fbd71b244U, 0x3e63b557bdd6276cU, 0x3e1365593dce0c32U, 0xbe789883bebe9338U,
  0x3d392376be2a6a23U, 0x3e229b68bd7d9a71U, 0xbe364366be02c944U, 0x3c7645433c1a955fU,
  0x3d3fc8a93b24bb36U, 0xbd45f60b3c2bf223U, 0x3cc703223cae2989U, 0x3db5ecddbe04c59eU,
  0xbd5573883dc28c83U, 0x3e65cbfabd09472cU, 0x3d35f7bb3d30b427U, 0x3d8cf238bcedd42bU,
  0xbc6d39e43b84d366U, 0x3e50baeabe10372bU, 0xbc440039bdc22889U, 0x3e1a6199bcdb6d47U,
  0xbc7bdfa93e6d12edU, 0xbe01372f3c334a58U, 0x3dea4a7a3e6b6cfaU, 0xbdbb6776bdd2308dU,
  0xbd411e2f3cbe7780U, 0x3e70b4bd3cc11508U, 0xbe13314b3d7e33c5U, 0xbde905303c97c75aU,
  0xbe91c544bd6bf860U, 0xbdd26a5fbd93a9a4U, 0xbeadf1d3be82e0a3U, 0xbe5b5986bdda5bebU,
  0xb9bf6d86beaa7de4U, 0xbd8821113e54b41bU, 0x3e1f57583e85aa9fU, 0xbd9e017fbd8f99edU,
  0x3e5dde0a3d3868a7U, 0x3eb15a0fbe21bec7U, 0x3e4d520d3e00d9f4U, 0xbedca107be2b99b4U,
  0x3cc9ba583ce98e44U, 0xbdb37d54bd06baf1U, 0x3e20c42b3d4ce213U, 0x3d7b56efbdb5e486U,
  0xbd2a6d6f3e2fa939U, 0x3d23a4b0bacb0632U, 0x3e98ea123d11bdb9U, 0x3c40a4ff3dbfde50U,
  0x3d9bd9cfbda5e98dU, 0xbdf6cf2ebdfa8059U, 0xbd31ff4ebd8b4f2aU, 0x3d3662593e684575U,
  0xbcd84d303e08f060U, 0xbda38227bd76d216U, 0x3e1ce12f3d18b98bU, 0xbc7c6351bd8e9a5cU,
  0xbd8968ca3ea19e7aU, 0x3e15fa51bd260c7aU, 0x3e4d0eb6be088c1dU, 0x3d9eec7b3d0e0990U,
  0xbcc75b73be30a682U, 0xbc60c915bd9fe59dU, 0x3cbe5524bd9e6886U, 0x3c26d8e13dd8f721U,
  0x3e2afbee3daf44edU, 0x3ec64dacbc5aea81U, 0x3ecc6e483e5d75bbU, 0x3ee63e7b3de24d50U,
  0xbe1ca6f23e990619U, 0x3dcd4696bdea862cU, 0x3da71d7ebe3f06f5U, 0x3dd197a83d4a5a3bU,
  0xbe3980b7be2ee1b8U, 0xbdc6bcbcbd07619cU, 0xbdf62c1bbdffe3e9U, 0x3e7e505a3ecded25U,
  0xbc96847c3e3b7bc6U, 0xbd8a50a8bd29b7b1U, 0x3ec305b33d64e961U, 0x3e63c52dbdab4286U,
  0xbdc9d86c3e63dbcfU, 0x3da1cc1abdec26ddU, 0x3e7a92893d023669U, 0x3e08264f3d4bd1beU,
  0x3d8d8f91bdf76282U, 0xbda0bdf0be0088d8U, 0xbdbe633fbdede75fU, 0xbc6c06283e5c8530U,
  0xbd6966373e3a5e6eU, 0xbd526d1fbd0511f5U, 0x3dd24ea53e03b168U, 0x3e75d60f3dda1f72U,
  0xbe02d5583df9e789U, 0x3dcbaf2fbdd14a9eU, 0x3e878fefbddae3acU, 0x3d1dd4d03e0a1b49U,
  0x3cf34b59bdd105d0U, 0x3c2248d3be1f280bU, 0xbc55c1cbbe01a184U, 0x3c90e7ab3d1f9048U,
  0x3d71e20e3de24f08U, 0x3e642c3d3e042d5eU, 0x3ebb97c63e6a39fcU, 0x3eed5dd53e1f7d6eU,
  0xbe0669e93e941f86U, 0x3db188f6be898288U, 0x3d517e79bdcf72e1U, 0x3aec2dfd3dee2922U,
  0xbe2876abbdf329dcU, 0xbdc5cb3fbce81506U, 0xbe82d930bdec6c24U, 0x3e371c6c3eeca6d0U,
  0xbd2530213d9a2fa4U, 0xbd4189b7bc8e9cf0U, 0x3e6f61903e394e59U, 0x3e3ed93fbd8c260aU,
  0xbde622853e0dfe79U, 0x3e03de73bd88e308U, 0x3e4f4396bc9451bcU, 0x3cfc6e913d1faf1fU,
  0x3db722d2be2a0b4cU, 0xbd987f22be16965cU, 0xbe1477adbdc4a104U, 0xbd88bae83e0211e1U,
  0x3c0260b63e4aa5a4U, 0xbdf04b3bbcbc6597U, 0x3b9fef9a3dbdb813U, 0x3da4bf663abf74b5U,
  0xbd87fcbdbdf3ada0U, 0x3de6455ebd8d98e2U, 0x3d126b2abe1d6034U, 0x3dc08ae73d4ff68fU,
  0x3e0b2c14bd8a2b4bU, 0xbbea31b9bdc38cf3U, 0xbae1d2fdbe01dfd1U, 0x3d971bb5bc805ec2U,
  0x3e53f7f83c5ebcd1U, 0x3e337f27bda393bdU, 0x3ebdbf193e64a27fU, 0x3ecc3a5e3d54d8f4U,
  0xbdcfe46e3f07a0fbU, 0x3d932953be9b50f3U, 0xbd485707be5369b7U, 0x3e05b5af3c9aaaccU,
  0xbe2dea4fbe47a714U, 0xbe6d75d0bbf9cca0U, 0xbe98c941be868262U, 0x3ebd945c3e991ab0U,
  0xbd41f0b03ec1dc31U, 0xbedfe3643f019d77U, 0xbecc0534beb8cce0U, 0x3cd2f8a13e9add4dU,
  0xbe9101debe3607c2U, 0x3e363f913e92cad7U, 0x3ecefbcabdc1d3d9U, 0x3ebd581bbe53f215U,
  0x3f06849d3ea95fd9U, 0x3e6ee361beb83c17U, 0x3e4e15b7bf19857fU, 0x3edcbd44bee10893U,
  0x3e9601ed3fa6de35U, 0xbe5c95c93e8eddf0U, 0xbed4da56bf20033dU, 0x3efc64c33faf7695U,
  0xbface2d0bf21f705U, 0x3ef21f853f891ef2U, 0x3e99d4d6bd72af6dU, 0xbe18ea803e626dc2U,
  0xbe11fd41bea3c6d6U, 0xbebd4902bea51096U, 0x3e301512beee107dU, 0x3ea2f0edbeacaddfU,
  0xbf1297febd81c59dU, 0xbe2b73c73e6ce9bdU, 0x3ed9ef8e3e77e82aU, 0xbee18ad5bea33e7dU,
  0x3e38e3c83eef50e6U, 0xbeec801d3e9f1cf2U, 0xbfea41f8bf45c7f5U, 0x3f51dfba3f13be55U,
};


ai_handle g_network_weights_table[1 + 2] = {
  AI_HANDLE_PTR(AI_MAGIC_MARKER),
  AI_HANDLE_PTR(s_network_weights_array_u64),
  AI_HANDLE_PTR(AI_MAGIC_MARKER),
};

